#ifndef GESTURE_MODEL_QUANTIZED 
#define GESTURE_MODEL_QUANTIZED
unsigned char gesture_model_quantized[] = {
  0x24, 0x00, 0x00, 0x00, 0x54, 0x46, 0x4c, 0x33, 0x00, 0x00, 0x00, 0x00,
  0x00, 0x00, 0x00, 0x00, 0x00, 0x00, 0x12, 0x00, 0x1c, 0x00, 0x04, 0x00,
  0x08, 0x00, 0x0c, 0x00, 0x10, 0x00, 0x14, 0x00, 0x00, 0x00, 0x18, 0x00,
  0x12, 0x00, 0x00, 0x00, 0x03, 0x00, 0x00, 0x00, 0x80, 0x69, 0x01, 0x00,
  0xa8, 0x60, 0x01, 0x00, 0x90, 0x60, 0x01, 0x00, 0x3c, 0x00, 0x00, 0x00,
  0x04, 0x00, 0x00, 0x00, 0x01, 0x00, 0x00, 0x00, 0x0c, 0x00, 0x00, 0x00,
  0x08, 0x00, 0x0c, 0x00, 0x04, 0x00, 0x08, 0x00, 0x08, 0x00, 0x00, 0x00,
  0x08, 0x00, 0x00, 0x00, 0x0e, 0x00, 0x00, 0x00, 0x13, 0x00, 0x00, 0x00,
  0x6d, 0x69, 0x6e, 0x5f, 0x72, 0x75, 0x6e, 0x74, 0x69, 0x6d, 0x65, 0x5f,
  0x76, 0x65, 0x72, 0x73, 0x69, 0x6f, 0x6e, 0x00, 0x0f, 0x00, 0x00, 0x00,
  0x44, 0x60, 0x01, 0x00, 0x68, 0x5f, 0x01, 0x00, 0x14, 0x5f, 0x01, 0x00,
  0xf0, 0x5e, 0x01, 0x00, 0xac, 0x5e, 0x01, 0x00, 0x68, 0x5d, 0x01, 0x00,
  0x5c, 0x5d, 0x01, 0x00, 0x48, 0x5d, 0x01, 0x00, 0x34, 0x5d, 0x01, 0x00,
  0x20, 0x5d, 0x01, 0x00, 0x64, 0x00, 0x00, 0x00, 0x40, 0x00, 0x00, 0x00,
  0x34, 0x00, 0x00, 0x00, 0x20, 0x00, 0x00, 0x00, 0x04, 0x00, 0x00, 0x00,
  0xa2, 0x9e, 0xfe, 0xff, 0x04, 0x00, 0x00, 0x00, 0x05, 0x00, 0x00, 0x00,
  0x31, 0x2e, 0x35, 0x2e, 0x30, 0x00, 0x00, 0x00, 0x00, 0x00, 0x00, 0x00,
  0x54, 0x9a, 0xfe, 0xff, 0x00, 0x00, 0x00, 0x00, 0x00, 0x00, 0x00, 0x00,
  0x00, 0x00, 0x00, 0x00, 0x64, 0x9a, 0xfe, 0xff, 0x00, 0x00, 0x00, 0x00,
  0xd2, 0x9e, 0xfe, 0xff, 0x04, 0x00, 0x00, 0x00, 0x0c, 0x00, 0x00, 0x00,
  0x01, 0x00, 0x00, 0x00, 0x77, 0x00, 0x00, 0x00, 0x32, 0x00, 0x00, 0x00,
  0x00, 0x00, 0x00, 0x00, 0x00, 0x00, 0x00, 0x00, 0xf2, 0x9e, 0xfe, 0xff,
  0x04, 0x00, 0x00, 0x00, 0xa2, 0x5c, 0x01, 0x00, 0x00, 0xe4, 0xf9, 0xfb,
  0xf4, 0xfe, 0xcf, 0x45, 0xfc, 0x12, 0x0c, 0x15, 0x21, 0x09, 0xff, 0xe8,
  0x27, 0x40, 0xfb, 0x46, 0xff, 0x48, 0xf9, 0x20, 0x03, 0x25, 0x01, 0x21,
  0x02, 0xe2, 0x1e, 0x3a, 0xdb, 0x0a, 0xf6, 0x05, 0x10, 0x2d, 0xfc, 0x03,
  0x03, 0xd8, 0xf0, 0x01, 0x39, 0xfb, 0x10, 0xf9, 0xe9, 0x32, 0xfb, 0xe3,
  0xf8, 0xfd, 0xf6, 0xfc, 0xd9, 0x4e, 0xfc, 0x03, 0x10, 0x13, 0x21, 0x0b,
  0x06, 0xe8, 0x30, 0x40, 0xff, 0x53, 0xfa, 0x4a, 0xf4, 0x29, 0x04, 0x21,
  0x06, 0x1d, 0xff, 0xe9, 0x1f, 0x3f, 0xe0, 0x02, 0xee, 0x01, 0x16, 0x2e,
  0xfd, 0x0a, 0xfc, 0xda, 0xf0, 0x01, 0x30, 0xfc, 0x12, 0xf2, 0xeb, 0x3f,
  0x00, 0xe2, 0xfc, 0xfb, 0xf5, 0x03, 0xea, 0x4e, 0xfe, 0xfe, 0x16, 0x1a,
  0x1a, 0x0f, 0x14, 0xe9, 0x37, 0x41, 0xfe, 0x50, 0x01, 0x4a, 0xf1, 0x2f,
  0x08, 0x20, 0x0b, 0x26, 0xff, 0xee, 0x18, 0x47, 0xdc, 0x0a, 0xec, 0x02,
  0x15, 0x35, 0x03, 0x04, 0x03, 0xd8, 0xeb, 0x01, 0x36, 0x02, 0x0c, 0xf5,
  0xf0, 0x3f, 0x02, 0xe9, 0xf3, 0x05, 0xf3, 0x02, 0xf4, 0x55, 0xfa, 0x04,
  0x14, 0x1d, 0x1e, 0x0a, 0x1b, 0xe9, 0x3d, 0x42, 0xfd, 0x58, 0xfe, 0x4e,
  0xf0, 0x37, 0x02, 0x21, 0x07, 0x26, 0x00, 0xf5, 0x1c, 0x52, 0xda, 0x0b,
  0xec, 0xff, 0x13, 0x35, 0x05, 0x03, 0xfd, 0xea, 0xee, 0x01, 0x35, 0x05,
  0x18, 0xf4, 0xef, 0x44, 0x07, 0xe1, 0xf9, 0x06, 0xfb, 0xff, 0x09, 0x5b,
  0xfc, 0x05, 0x17, 0x1e, 0x27, 0x0a, 0x25, 0xe6, 0x37, 0x46, 0xfb, 0x5b,
  0xff, 0x50, 0xf2, 0x44, 0x07, 0x1c, 0x0e, 0x2c, 0x06, 0xfe, 0x24, 0x55,
  0xe4, 0x0b, 0xe6, 0x00, 0x16, 0x36, 0xfb, 0x04, 0xfb, 0xff, 0xe0, 0x00,
  0x3e, 0xfe, 0x19, 0xf6, 0xeb, 0x45, 0x08, 0xe2, 0xf6, 0x05, 0xf7, 0xfc,
  0x24, 0x59, 0xfb, 0x14, 0x1f, 0x1d, 0x2c, 0x0c, 0x2c, 0xf0, 0x3b, 0x47,
  0xf9, 0x58, 0xf9, 0x58, 0xf8, 0x4c, 0x0b, 0x19, 0x0f, 0x31, 0x07, 0x09,
  0x26, 0x5b, 0xea, 0x09, 0xe6, 0x02, 0x12, 0x2f, 0x01, 0x05, 0x05, 0x07,
  0xe1, 0xfc, 0x43, 0x00, 0x1a, 0xf4, 0xea, 0x4e, 0x06, 0xe2, 0xf8, 0x00,
  0xf9, 0x00, 0x2c, 0x62, 0x04, 0x1e, 0x20, 0x1c, 0x3b, 0x08, 0x2e, 0xf2,
  0x49, 0x47, 0xfc, 0x61, 0xff, 0x4f, 0xf8, 0x56, 0x11, 0x10, 0x08, 0x35,
  0x05, 0x15, 0x1c, 0x5b, 0xef, 0xff, 0xdd, 0x00, 0x12, 0x38, 0xfd, 0x0a,
  0xff, 0x14, 0xd4, 0x00, 0x48, 0x06, 0x1c, 0xef, 0xef, 0x56, 0x0b, 0xe2,
  0xfb, 0x08, 0xfb, 0xfd, 0x30, 0x63, 0xfc, 0x24, 0x27, 0x24, 0x3f, 0x0c,
  0x31, 0xed, 0x4b, 0x4f, 0xfb, 0x60, 0xfd, 0x57, 0xf1, 0x55, 0x0f, 0x0f,
  0x07, 0x31, 0x05, 0x20, 0x1d, 0x5d, 0xf8, 0x02, 0xdc, 0xfe, 0x0f, 0x39,
  0x02, 0x0a, 0xfd, 0x12, 0xca, 0x02, 0x48, 0x09, 0x13, 0xec, 0xe7, 0x5c,
  0x0c, 0xe9, 0xf4, 0x08, 0x03, 0x01, 0x32, 0x62, 0x04, 0x26, 0x27, 0x1d,
  0x46, 0x0b, 0x2d, 0xe8, 0x44, 0x4a, 0xff, 0x60, 0xfe, 0x53, 0xfb, 0x61,
  0x08, 0x0c, 0x0d, 0x2d, 0x0a, 0x22, 0x1f, 0x62, 0xf4, 0x04, 0xe4, 0x01,
  0x11, 0x42, 0xfb, 0x06, 0x00, 0x10, 0xc7, 0xff, 0x4e, 0x0d, 0x13, 0xed,
  0xe2, 0x5b, 0x01, 0xe5, 0xf3, 0x03, 0x02, 0xff, 0x2c, 0x5d, 0x03, 0x17,
  0x28, 0x24, 0x39, 0x06, 0x28, 0xed, 0x4d, 0x55, 0xfe, 0x5d, 0x02, 0x54,
  0xf9, 0x64, 0x0b, 0xfc, 0x08, 0x2f, 0x0d, 0x23, 0x22, 0x62, 0xf6, 0xff,
  0xe2, 0x02, 0x11, 0x4b, 0xfc, 0x05, 0x05, 0x0f, 0xc3, 0xfc, 0x5a, 0x07,
  0x17, 0xf6, 0xe0, 0x51, 0x01, 0xea, 0xf3, 0x08, 0xff, 0xfd, 0x29, 0x5c,
  0xfe, 0x1f, 0x27, 0x1a, 0x3d, 0x07, 0x23, 0xf2, 0x46, 0x53, 0xfb, 0x59,
  0x01, 0x60, 0xf8, 0x65, 0x10, 0x03, 0x0e, 0x33, 0x0b, 0x28, 0x20, 0x5e,
  0xf0, 0x03, 0xe4, 0x00, 0x0f, 0x49, 0x06, 0xff, 0xfe, 0x17, 0xc4, 0xfb,
  0x5e, 0x07, 0x1b, 0xf2, 0xe5, 0x4f, 0x00, 0xe8, 0xf3, 0x05, 0x02, 0x05,
  0x36, 0x65, 0x03, 0x1b, 0x26, 0x1a, 0x37, 0x05, 0x25, 0xec, 0x4b, 0x57,
  0xfc, 0x57, 0xf9, 0x61, 0xf6, 0x63, 0x09, 0xfa, 0x08, 0x33, 0x08, 0x29,
  0x1f, 0x67, 0xfa, 0xfb, 0xdc, 0xfb, 0x0c, 0x4f, 0xfe, 0x03, 0x00, 0x20,
  0xc0, 0xfe, 0x68, 0x07, 0x0f, 0xe9, 0xdd, 0x5a, 0x00, 0xe3, 0xf6, 0xff,
  0x03, 0xfc, 0x39, 0x63, 0xfc, 0x22, 0x27, 0x1a, 0x42, 0x03, 0x21, 0xf1,
  0x4d, 0x5d, 0xfb, 0x5e, 0x03, 0x66, 0xf7, 0x69, 0x10, 0xfb, 0x02, 0x34,
  0x09, 0x26, 0x1b, 0x63, 0xfa, 0xfb, 0xd8, 0xfe, 0x06, 0x4a, 0xfd, 0xfa,
  0xfb, 0x20, 0xba, 0xfc, 0x69, 0x04, 0x13, 0xef, 0xdc, 0x5a, 0xfa, 0xe1,
  0xf0, 0x08, 0xfd, 0xfc, 0x40, 0x6d, 0xff, 0x1d, 0x24, 0x19, 0x46, 0x00,
  0x20, 0xf3, 0x55, 0x5a, 0xf7, 0x67, 0x01, 0x68, 0xf0, 0x73, 0x09, 0xf5,
  0x08, 0x2f, 0x0c, 0x2a, 0x1e, 0x6b, 0x00, 0x01, 0xdd, 0xfc, 0x05, 0x55,
  0xfa, 0xfa, 0xfe, 0x2b, 0xc5, 0x02, 0x63, 0x03, 0x0f, 0xf4, 0xd9, 0x57,
  0xfc, 0xe8, 0xf4, 0x0a, 0xff, 0x00, 0x4a, 0x6d, 0x03, 0x28, 0x26, 0x1c,
  0x49, 0x00, 0x1e, 0xf2, 0x56, 0x55, 0xee, 0x67, 0xfb, 0x67, 0xf0, 0x6f,
  0x0b, 0xef, 0x08, 0x32, 0x02, 0x30, 0x21, 0x72, 0x0a, 0xfd, 0xdc, 0x01,
  0x07, 0x54, 0xfe, 0xf3, 0xff, 0x2f, 0xc4, 0x00, 0x63, 0x05, 0x0e, 0xef,
  0xdc, 0x62, 0xfc, 0xe5, 0xf5, 0x00, 0xfe, 0x05, 0x55, 0x6a, 0xfc, 0x2a,
  0x1f, 0x1d, 0x4a, 0x00, 0x20, 0xf0, 0x57, 0x48, 0xeb, 0x6e, 0x01, 0x62,
  0xf7, 0x70, 0x0a, 0xed, 0x08, 0x2f, 0x0b, 0x2c, 0x1f, 0x74, 0x0f, 0xfc,
  0xdb, 0x03, 0x05, 0x5d, 0x00, 0xfb, 0x06, 0x3f, 0xbb, 0xff, 0x5c, 0xff,
  0x18, 0xf2, 0xdb, 0x6c, 0xfc, 0xe8, 0xf6, 0x07, 0xfe, 0x01, 0x5e, 0x6f,
  0x03, 0x39, 0x29, 0x1c, 0x56, 0xfc, 0x1b, 0xf4, 0x65, 0x46, 0xf0, 0x69,
  0xfd, 0x5f, 0xf4, 0x7a, 0x05, 0xe0, 0x05, 0x37, 0x0c, 0x2f, 0x21, 0x75,
  0x19, 0xf7, 0xe4, 0x00, 0xff, 0x53, 0xfc, 0xef, 0xff, 0x3d, 0xc3, 0xfd,
  0x5f, 0x01, 0x16, 0xf0, 0xda, 0x67, 0xfb, 0xe8, 0xf3, 0x03, 0x00, 0x03,
  0x4c, 0x65, 0xfd, 0x38, 0x25, 0x16, 0x58, 0xfd, 0x1c, 0xee, 0x63, 0x3b,
  0xe9, 0x65, 0x02, 0x63, 0xf8, 0x7f, 0x09, 0xe2, 0x06, 0x38, 0x07, 0x36,
  0x18, 0x78, 0x1b, 0xfa, 0xe4, 0xfd, 0xfc, 0x50, 0xff, 0xf6, 0xfc, 0x42,
  0xc3, 0x01, 0x5d, 0x08, 0x12, 0xf6, 0xd8, 0x61, 0xf9, 0xe5, 0xf1, 0x0b,
  0x05, 0x02, 0x50, 0x66, 0x01, 0x45, 0x22, 0x19, 0x53, 0x01, 0x1d, 0xf2,
  0x61, 0x3e, 0xf1, 0x69, 0x03, 0x5e, 0xf9, 0x77, 0x07, 0xde, 0x03, 0x2d,
  0x04, 0x38, 0x1c, 0x74, 0x18, 0xfe, 0xe4, 0xfc, 0xfb, 0x4e, 0x04, 0xf6,
  0x04, 0x4e, 0xc1, 0xfe, 0x5d, 0x02, 0x1a, 0xf2, 0xd1, 0x5e, 0xff, 0xf0,
  0xf3, 0x09, 0x02, 0x01, 0x4e, 0x63, 0xfd, 0x48, 0x24, 0x19, 0x51, 0x00,
  0x18, 0xf7, 0x55, 0x30, 0xe8, 0x65, 0x04, 0x5d, 0xfa, 0x73, 0x03, 0xdf,
  0x09, 0x2d, 0x0b, 0x30, 0x1f, 0x6d, 0x1a, 0xf9, 0xee, 0xfc, 0xfa, 0x51,
  0xff, 0xf9, 0x05, 0x49, 0xc7, 0x04, 0x5c, 0x0a, 0x0f, 0xf6, 0xda, 0x5b,
  0xf9, 0xef, 0xfd, 0x05, 0x07, 0x00, 0x4b, 0x5e, 0xfc, 0x43, 0x23, 0x19,
  0x52, 0x01, 0x1d, 0xf1, 0x57, 0x2d, 0xe6, 0x58, 0x06, 0x53, 0xff, 0x72,
  0x02, 0xd6, 0x07, 0x2d, 0x0d, 0x35, 0x1d, 0x67, 0x1c, 0xff, 0xe9, 0xfb,
  0x01, 0x4b, 0xfb, 0xf0, 0xff, 0x4c, 0xc5, 0xfc, 0x58, 0x07, 0x17, 0xfd,
  0xd1, 0x55, 0xf9, 0xeb, 0x00, 0x0e, 0x0a, 0xfc, 0x42, 0x59, 0x02, 0x3c,
  0x17, 0x11, 0x4b, 0x06, 0x19, 0xf9, 0x44, 0x2f, 0xe5, 0x53, 0xff, 0x52,
  0xfe, 0x70, 0x00, 0xda, 0x09, 0x27, 0x04, 0x2b, 0x17, 0x64, 0x18, 0xff,
  0xf6, 0x05, 0xfe, 0x48, 0x01, 0xf7, 0x00, 0x47, 0xc9, 0xfc, 0x51, 0x04,
  0x10, 0x00, 0xd6, 0x51, 0x01, 0xeb, 0xfa, 0x0b, 0x0a, 0xfe, 0x47, 0x50,
  0x00, 0x31, 0x1f, 0x11, 0x4b, 0x09, 0x15, 0xf8, 0x3e, 0x2a, 0xe6, 0x52,
  0x03, 0x52, 0x04, 0x65, 0x04, 0xd1, 0x04, 0x21, 0x0d, 0x30, 0x19, 0x5e,
  0x11, 0x05, 0xf2, 0x04, 0xf7, 0x3e, 0xfb, 0xf5, 0xfc, 0x44, 0xd2, 0x00,
  0x47, 0x0d, 0x10, 0x07, 0xd6, 0x48, 0x02, 0xf5, 0xfe, 0x0b, 0x05, 0x02,
  0x45, 0x52, 0x05, 0x37, 0x15, 0x0e, 0x50, 0x03, 0x19, 0xf0, 0x41, 0x24,
  0xe7, 0x4e, 0xfd, 0x48, 0x01, 0x6d, 0x00, 0xd1, 0x0b, 0x20, 0x0b, 0x31,
  0x17, 0x60, 0x17, 0x00, 0xf1, 0xfe, 0xfd, 0x3f, 0xfc, 0xfa, 0x03, 0x42,
  0xcd, 0x05, 0x46, 0x0b, 0x19, 0xfc, 0xde, 0x42, 0x06, 0xee, 0xf9, 0x0d,
  0x11, 0x04, 0x49, 0x55, 0x04, 0x33, 0x1c, 0x12, 0x45, 0x01, 0x16, 0xf4,
  0x3e, 0x1e, 0xeb, 0x4c, 0x00, 0x44, 0x04, 0x6e, 0x02, 0xd2, 0x0a, 0x19,
  0x04, 0x2d, 0x14, 0x5a, 0x17, 0x06, 0xfb, 0x04, 0xfa, 0x3a, 0x03, 0xfb,
  0xfd, 0x3d, 0xcd, 0x05, 0x45, 0x05, 0x1a, 0x07, 0xe1, 0x3e, 0x08, 0xef,
  0x06, 0x0f, 0x0b, 0x02, 0x44, 0x4f, 0xfc, 0x2c, 0x13, 0x0c, 0x4e, 0x04,
  0x13, 0xf6, 0x45, 0x17, 0xea, 0x46, 0x02, 0x48, 0x07, 0x69, 0x05, 0xd2,
  0x02, 0x1a, 0x0d, 0x2d, 0x14, 0x5f, 0x19, 0xff, 0xfd, 0x02, 0xf6, 0x38,
  0xfc, 0xf4, 0x05, 0x38, 0xd7, 0x00, 0x44, 0x06, 0x14, 0x07, 0xdd, 0x46,
  0x00, 0xf5, 0xff, 0x0e, 0x0b, 0xfd, 0x4b, 0x4e, 0xfd, 0x32, 0x19, 0x0c,
  0x4a, 0x03, 0x1b, 0xf5, 0x39, 0x10, 0xe2, 0x42, 0x00, 0x48, 0x0d, 0x6b,
  0x03, 0xd0, 0x09, 0x1e, 0x05, 0x34, 0x1a, 0x63, 0x14, 0x0a, 0x00, 0x03,
  0xff, 0x31, 0xfe, 0xf4, 0x06, 0x3a, 0xd5, 0x05, 0x41, 0x0f, 0x12, 0x0c,
  0xd7, 0x3f, 0x05, 0xf1, 0x07, 0x07, 0x0e, 0x01, 0x3f, 0x47, 0x04, 0x26,
  0x1b, 0x0f, 0x45, 0x01, 0x14, 0xfb, 0x3a, 0x05, 0xe2, 0x41, 0x00, 0x42,
  0x0b, 0x64, 0x06, 0xcc, 0x01, 0x1a, 0x0e, 0x2d, 0x1b, 0x5a, 0x07, 0x0a,
  0x02, 0xfb, 0xf8, 0x2e, 0xfe, 0xf7, 0xfe, 0x3a, 0xdd, 0xfc, 0x3e, 0x09,
  0x1c, 0x0c, 0xd7, 0x3f, 0xfd, 0xf4, 0x03, 0x0d, 0x0a, 0x04, 0x41, 0x40,
  0xfe, 0x26, 0x15, 0x0e, 0x3d, 0x04, 0x16, 0xf4, 0x3c, 0x00, 0xe4, 0x39,
  0x05, 0x46, 0x0b, 0x69, 0xfc, 0xc4, 0x07, 0x1a, 0x0c, 0x32, 0x16, 0x5a,
  0x09, 0x00, 0x01, 0xff, 0xf9, 0x35, 0xfc, 0xf9, 0xfc, 0x3b, 0xda, 0xfb,
  0x3b, 0x0a, 0x12, 0x09, 0xd6, 0x36, 0xf9, 0xf9, 0x06, 0x08, 0x0d, 0x00,
  0x49, 0x41, 0xfd, 0x29, 0x13, 0x08, 0x3f, 0x09, 0x1a, 0xf4, 0x3e, 0xf1,
  0xe1, 0x3c, 0x04, 0x47, 0x0f, 0x69, 0x06, 0xba, 0x07, 0x11, 0x06, 0x32,
  0x1a, 0x56, 0x03, 0x07, 0xfd, 0x02, 0x00, 0x3a, 0xff, 0xf5, 0xfd, 0x34,
  0xde, 0xff, 0x2e, 0x0a, 0x1a, 0x0c, 0xcf, 0x3b, 0xfc, 0xfc, 0x02, 0x0d,
  0x08, 0xfc, 0x41, 0x42, 0x04, 0x1e, 0x15, 0x0d, 0x40, 0x03, 0x1e, 0xf2,
  0x3d, 0xf6, 0xd9, 0x39, 0x06, 0x4b, 0x08, 0x6f, 0x05, 0xb8, 0x0a, 0x13,
  0x0a, 0x2d, 0x18, 0x59, 0x02, 0x03, 0x02, 0xfe, 0x00, 0x3d, 0x05, 0xf4,
  0x01, 0x35, 0xdd, 0xff, 0x2b, 0x0b, 0x1a, 0x0e, 0xd2, 0x39, 0xfc, 0xf3,
  0xfc, 0x07, 0x0c, 0xfd, 0x47, 0x47, 0x05, 0x18, 0x14, 0x0b, 0x3b, 0x02,
  0x1f, 0xf1, 0x36, 0xee, 0xda, 0x35, 0x0a, 0x48, 0x0c, 0x65, 0xfb, 0xc1,
  0x05, 0x15, 0x0c, 0x2e, 0x1a, 0x57, 0x01, 0x03, 0xff, 0x05, 0xfe, 0x39,
  0x04, 0xf7, 0x03, 0x3d, 0xe0, 0x04, 0x29, 0x10, 0x12, 0x05, 0xcb, 0x3a,
  0xfd, 0xfa, 0xfd, 0x0f, 0x11, 0xfc, 0x41, 0x40, 0xfc, 0x0e, 0x11, 0x0b,
  0x3a, 0x03, 0x22, 0xf3, 0x39, 0xec, 0xd6, 0x34, 0x04, 0x42, 0x04, 0x68,
  0x02, 0xc2, 0x01, 0x16, 0x06, 0x2a, 0x1b, 0x54, 0xf6, 0x06, 0x04, 0xfc,
  0xfd, 0x35, 0xff, 0xf6, 0x01, 0x3c, 0xe1, 0x00, 0x2b, 0x0e, 0x18, 0x0a,
  0xcd, 0x3d, 0x03, 0xf5, 0x00, 0x0d, 0x0e, 0x03, 0x39, 0x3b, 0xfb, 0x03,
  0x12, 0x0d, 0x33, 0x0a, 0x24, 0xed, 0x33, 0xf1, 0xdb, 0x2f, 0x01, 0x44,
  0x0e, 0x69, 0xfd, 0xc6, 0x0b, 0x12, 0x04, 0x2b, 0x1c, 0x4f, 0xef, 0x07,
  0xfd, 0x03, 0xff, 0x31, 0x02, 0xf0, 0x01, 0x31, 0xe0, 0xfd, 0x27, 0x08,
  0x17, 0x12, 0xd0, 0x36, 0xfb, 0xf9, 0x06, 0x10, 0x08, 0x03, 0x31, 0x3c,
  0x03, 0xfa, 0x10, 0x06, 0x2b, 0x06, 0x27, 0xef, 0x26, 0xe6, 0xd7, 0x26,
  0x07, 0x43, 0x10, 0x5e, 0x00, 0xc1, 0x05, 0x07, 0x09, 0x26, 0x17, 0x4f,
  0xe0, 0x06, 0xfe, 0x05, 0x00, 0x34, 0xfb, 0xf6, 0x00, 0x2b, 0xe8, 0x01,
  0x22, 0x09, 0x12, 0x14, 0xd5, 0x33, 0xfd, 0xf4, 0x04, 0x0b, 0x11, 0x01,
  0x33, 0x39, 0x05, 0xf5, 0x15, 0x03, 0x2e, 0x07, 0x25, 0xf6, 0x22, 0xea,
  0xdd, 0x2a, 0x01, 0x38, 0x0d, 0x63, 0x02, 0xc4, 0x08, 0x0c, 0x0a, 0x23,
  0x19, 0x43, 0xe1, 0x07, 0xff, 0x05, 0x01, 0x28, 0xfc, 0xf5, 0xfd, 0x28,
  0xe7, 0x02, 0x20, 0x0d, 0x1c, 0x0b, 0xd8, 0x34, 0x00, 0xfa, 0x05, 0x11,
  0x0c, 0x01, 0x3c, 0x3a, 0xfb, 0xf9, 0x16, 0x05, 0x2e, 0x00, 0x1f, 0xf1,
  0x24, 0xec, 0xde, 0x24, 0x04, 0x3b, 0x07, 0x62, 0xfc, 0xcb, 0x00, 0x09,
  0x05, 0x27, 0x1b, 0x44, 0xe6, 0x07, 0x03, 0xfa, 0x03, 0x27, 0xfb, 0xee,
  0xff, 0x27, 0xed, 0x01, 0x2a, 0x0f, 0x12, 0x0e, 0xd7, 0x2e, 0xfe, 0xfb,
  0x01, 0x0d, 0x12, 0xfe, 0x3b, 0x37, 0xfd, 0xfb, 0x17, 0x0a, 0x37, 0x05,
  0x24, 0xf6, 0x2d, 0xe4, 0xe0, 0x22, 0x09, 0x3b, 0x0c, 0x61, 0x06, 0xcc,
  0x06, 0x0e, 0x08, 0x26, 0x17, 0x41, 0xe7, 0x01, 0x09, 0x03, 0xff, 0x2b,
  0x03, 0xf9, 0x01, 0x2b, 0xe6, 0x00, 0x23, 0x0c, 0x11, 0x0b, 0xd6, 0x33,
  0xf6, 0xfb, 0x06, 0x07, 0x11, 0x01, 0x3d, 0x32, 0xfd, 0x02, 0x12, 0x06,
  0x38, 0x00, 0x27, 0xf5, 0x2e, 0xe8, 0xd7, 0x26, 0x05, 0x3c, 0x04, 0x5a,
  0xfc, 0xce, 0x04, 0x0e, 0x04, 0x2c, 0x1b, 0x42, 0xf6, 0x04, 0x08, 0x04,
  0x07, 0x2f, 0x03, 0xf8, 0x02, 0x33, 0xe9, 0x00, 0x26, 0x09, 0x10, 0x07,
  0xd5, 0x34, 0xf5, 0xf7, 0x00, 0x06, 0x10, 0xfd, 0x4a, 0x30, 0xfd, 0x0e,
  0x14, 0x04, 0x3d, 0x03, 0x2a, 0xf4, 0x38, 0xec, 0xd7, 0x2f, 0x01, 0x45,
  0x03, 0x5b, 0xfd, 0xc9, 0x00, 0x0e, 0x07, 0x24, 0x1f, 0x48, 0xfa, 0xff,
  0x03, 0x05, 0x02, 0x38, 0xff, 0xef, 0xff, 0x35, 0xf1, 0xfd, 0x22, 0x0b,
  0x11, 0x0b, 0xd9, 0x31, 0xf3, 0xf4, 0xff, 0x0f, 0x0a, 0xfd, 0x4d, 0x35,
  0x05, 0x1f, 0x13, 0x02, 0x3e, 0x00, 0x23, 0xf5, 0x3c, 0xed, 0xdb, 0x31,
  0x08, 0x3c, 0x05, 0x5a, 0x03, 0xce, 0x05, 0x16, 0x05, 0x22, 0x1e, 0x45,
  0x07, 0x09, 0x04, 0x01, 0x01, 0x36, 0xff, 0xf3, 0x02, 0x3b, 0xef, 0xff,
  0x26, 0x05, 0x0e, 0x07, 0xdc, 0x32, 0xf0, 0xf9, 0x01, 0x09, 0x0f, 0x03,
  0x50, 0x39, 0x03, 0x1f, 0x14, 0x04, 0x3c, 0xff, 0x28, 0xf2, 0x3a, 0xf5,
  0xd9, 0x38, 0x00, 0x41, 0x04, 0x56, 0x04, 0xcf, 0x08, 0x14, 0x07, 0x25,
  0x1a, 0x4a, 0x06, 0x02, 0xfe, 0xfd, 0x01, 0x38, 0x00, 0xee, 0xfe, 0x3e,
  0xef, 0xfe, 0x24, 0x04, 0x16, 0x06, 0xdd, 0x3c, 0xef, 0xfb, 0xff, 0x06,
  0x0d, 0xfc, 0x4e, 0x32, 0x03, 0x24, 0x11, 0x07, 0x42, 0x08, 0x2b, 0xf2,
  0x37, 0xf3, 0xd8, 0x39, 0x05, 0x46, 0x09, 0x56, 0xfb, 0xce, 0x04, 0x0f,
  0x06, 0x23, 0x1c, 0x4a, 0x07, 0x0a, 0x0a, 0x05, 0x0c, 0x33, 0xfc, 0xed,
  0x05, 0x3a, 0xf0, 0x00, 0x1e, 0x05, 0x15, 0x0b, 0xdd, 0x37, 0xed, 0xf4,
  0xf7, 0x0d, 0x04, 0x01, 0x4b, 0x32, 0xfe, 0x26, 0x12, 0x03, 0x38, 0x06,
  0x27, 0xf7, 0x30, 0xf1, 0xe1, 0x2e, 0x06, 0x43, 0x08, 0x4b, 0xfc, 0xd4,
  0x09, 0x12, 0x08, 0x21, 0x1c, 0x42, 0x0f, 0x01, 0x02, 0xfc, 0x0a, 0x33,
  0xfc, 0xf3, 0xfd, 0x3d, 0xf7, 0x06, 0x20, 0x09, 0x0c, 0x0a, 0xde, 0x39,
  0xf2, 0xfb, 0x00, 0x0d, 0x06, 0xfb, 0x55, 0x30, 0xfc, 0x30, 0x18, 0x0c,
  0x3d, 0x05, 0x28, 0xf2, 0x36, 0xf7, 0xda, 0x33, 0x0a, 0x3b, 0xff, 0x48,
  0x03, 0xdd, 0x00, 0x13, 0x01, 0x1e, 0x1b, 0x3d, 0x19, 0x04, 0x04, 0x05,
  0x09, 0x2d, 0xfd, 0xf3, 0x02, 0x42, 0xf9, 0xfc, 0x22, 0x06, 0x14, 0x0d,
  0xd9, 0x34, 0xee, 0xf7, 0xfa, 0x0d, 0x08, 0xfe, 0x51, 0x2c, 0xff, 0x34,
  0x13, 0x06, 0x33, 0xff, 0x2b, 0xf7, 0x2d, 0xfc, 0xd7, 0x38, 0x08, 0x3b,
  0x03, 0x4d, 0x04, 0xde, 0x08, 0x15, 0xfe, 0x1d, 0x1e, 0x3b, 0x17, 0x08,
  0x0a, 0x05, 0x0a, 0x34, 0x02, 0xf2, 0x00, 0x38, 0xf9, 0xfd, 0x1b, 0x02,
  0x0f, 0x07, 0xdb, 0x32, 0xe9, 0xf2, 0xf8, 0x05, 0x04, 0x02, 0x47, 0x2e,
  0x02, 0x3b, 0x12, 0x09, 0x3a, 0x03, 0x28, 0xed, 0x2a, 0x00, 0xdd, 0x38,
  0x08, 0x3b, 0x02, 0x49, 0x02, 0xe0, 0x05, 0x0f, 0x05, 0x16, 0x1d, 0x44,
  0x25, 0x02, 0x03, 0xfb, 0x0a, 0x36, 0xfb, 0xef, 0x05, 0x3f, 0xff, 0x02,
  0x1a, 0x0c, 0x14, 0x0a, 0xe2, 0x2b, 0xe4, 0xfa, 0x00, 0x07, 0x02, 0xfc,
  0x4a, 0x31, 0x01, 0x41, 0x18, 0x09, 0x31, 0x00, 0x2e, 0xf5, 0x2a, 0xfe,
  0xd3, 0x3a, 0x07, 0x47, 0x04, 0x4a, 0xfd, 0xde, 0x07, 0x0b, 0xfd, 0x1c,
  0x15, 0x3b, 0x26, 0x05, 0x03, 0xfd, 0x0d, 0x31, 0x00, 0xf4, 0x01, 0x42,
  0xf8, 0xfc, 0x18, 0x04, 0x0b, 0x04, 0xe0, 0x2f, 0xe1, 0xf1, 0xf7, 0x06,
  0x0a, 0x06, 0x46, 0x2e, 0x02, 0x38, 0x11, 0x09, 0x32, 0x07, 0x2c, 0xf2,
  0x33, 0x00, 0xd1, 0x32, 0x07, 0x3e, 0x06, 0x47, 0xfb, 0xe8, 0x09, 0x0f,
  0x02, 0x14, 0x15, 0x3c, 0x28, 0x01, 0x03, 0x05, 0x0f, 0x3b, 0x02, 0xef,
  0x02, 0x42, 0xff, 0x00, 0x18, 0x04, 0x0a, 0x0c, 0xde, 0x2e, 0xdc, 0xf9,
  0xf9, 0x08, 0x06, 0x01, 0x52, 0x30, 0x04, 0x36, 0x14, 0x04, 0x2e, 0xfe,
  0x2b, 0xeb, 0x33, 0x04, 0xd2, 0x3a, 0x01, 0x45, 0xfd, 0x49, 0xfc, 0xe7,
  0x07, 0x10, 0x01, 0x1b, 0x19, 0x3b, 0x2c, 0x08, 0x09, 0xfc, 0x10, 0x3b,
  0x05, 0xf6, 0xfd, 0x45, 0xff, 0x03, 0x14, 0x0a, 0x14, 0x07, 0xd6, 0x34,
  0xdb, 0xf5, 0xfe, 0x08, 0x04, 0xfd, 0x52, 0x39, 0x00, 0x39, 0x12, 0x0a,
  0x38, 0xfd, 0x27, 0xf0, 0x36, 0x08, 0xd6, 0x37, 0x05, 0x48, 0x00, 0x40,
  0xfa, 0xe7, 0xff, 0x12, 0x02, 0x19, 0x1a, 0x40, 0x28, 0x01, 0x02, 0xfd,
  0x13, 0x38, 0xfc, 0xf5, 0xfe, 0x4b, 0x01, 0x02, 0x1c, 0x04, 0x12, 0x08,
  0xda, 0x35, 0xdb, 0xee, 0xf8, 0x03, 0x05, 0xfc, 0x51, 0x32, 0xfe, 0x39,
  0x16, 0x0c, 0x35, 0xff, 0x27, 0xf2, 0x3e, 0x07, 0xcd, 0x3a, 0xff, 0x45,
  0x04, 0x41, 0xfe, 0xef, 0x03, 0x14, 0x00, 0x16, 0x1e, 0x40, 0x28, 0x04,
  0x08, 0x03, 0x0b, 0x3e, 0xfe, 0xec, 0x01, 0x4b, 0xfb, 0x03, 0x18, 0xff,
  0x0b, 0x02, 0xd0, 0x37, 0xd8, 0xf6, 0xfa, 0x05, 0x06, 0xfe, 0x59, 0x39,
  0x05, 0x3d, 0x1d, 0x02, 0x39, 0xfe, 0x2c, 0xf2, 0x3a, 0x07, 0xcc, 0x3d,
  0x07, 0x51, 0xfa, 0x4b, 0x01, 0xea, 0x07, 0x12, 0xfd, 0x15, 0x1f, 0x3f,
  0x29, 0x02, 0x09, 0x01, 0x0d, 0x46, 0xfb, 0xf1, 0xfc, 0x48, 0x03, 0xfc,
  0x1c, 0x04, 0x0e, 0x0c, 0xd3, 0x3a, 0xd9, 0xf6, 0xf2, 0x04, 0x03, 0x00,
  0x5d, 0x3b, 0xfe, 0x3f, 0x1d, 0x0c, 0x38, 0x00, 0x2f, 0xe8, 0x3d, 0x0a,
  0xcc, 0x3a, 0x01, 0x4c, 0xff, 0x4c, 0xfe, 0xed, 0x09, 0x1a, 0x01, 0x17,
  0x20, 0x49, 0x2c, 0x03, 0x04, 0x04, 0x11, 0x4a, 0xfa, 0xec, 0xff, 0x4e,
  0x00, 0xfb, 0x1f, 0x04, 0x13, 0x02, 0xd0, 0x37, 0xd8, 0xee, 0xf5, 0x06,
  0x09, 0xfc, 0x58, 0x3f, 0x05, 0x41, 0x19, 0x05, 0x32, 0xfe, 0x2b, 0xf1,
  0x40, 0x10, 0xca, 0x44, 0x06, 0x53, 0xfd, 0x47, 0xfb, 0xf1, 0x04, 0x1c,
  0x01, 0x14, 0x1d, 0x47, 0x2e, 0x09, 0xff, 0x03, 0x0b, 0x46, 0x01, 0xf5,
  0x03, 0x4b, 0x00, 0x01, 0x1f, 0x04, 0x0e, 0x09, 0xd8, 0x36, 0xd3, 0xf5,
  0xf9, 0x02, 0x03, 0xfc, 0x5f, 0x3d, 0xfc, 0x42, 0x1c, 0x0b, 0x34, 0x05,
  0x26, 0xf2, 0x3e, 0x16, 0xd1, 0x48, 0x06, 0x53, 0xfb, 0x4a, 0xff, 0xf3,
  0x00, 0x1c, 0x02, 0x0f, 0x19, 0x44, 0x34, 0x02, 0x07, 0x02, 0x0c, 0x47,
  0xfc, 0xf4, 0xff, 0x55, 0xfd, 0xfd, 0x20, 0x05, 0x0b, 0x08, 0xd5, 0x3b,
  0xd2, 0xea, 0xf3, 0x02, 0xfd, 0x05, 0x5a, 0x45, 0xff, 0x40, 0x1e, 0x0f,
  0x2f, 0x06, 0x30, 0xef, 0x48, 0x19, 0xd1, 0x46, 0x03, 0x53, 0xff, 0x44,
  0xff, 0xfa, 0xff, 0x1b, 0xfc, 0x11, 0x1d, 0x4b, 0x35, 0x03, 0xfd, 0x01,
  0x0b, 0x49, 0x04, 0xef, 0x05, 0x51, 0xff, 0x05, 0x27, 0x06, 0x15, 0x03,
  0xcf, 0x3e, 0xdc, 0xea, 0xfb, 0x08, 0x07, 0xfc, 0x5a, 0x43, 0x01, 0x3d,
  0x16, 0x0b, 0x31, 0x00, 0x2e, 0xef, 0x42, 0x19, 0xcc, 0x46, 0x04, 0x52,
  0x01, 0x47, 0xfb, 0xf3, 0x06, 0x1c, 0xfd, 0x18, 0x1d, 0x48, 0x2c, 0x08,
  0x00, 0x03, 0x16, 0x47, 0xfd, 0xef, 0x00, 0x51, 0xfd, 0x02, 0x26, 0x08,
  0x13, 0x00, 0xd5, 0x34, 0xd3, 0xee, 0xf3, 0x07, 0x06, 0xfc, 0x56, 0x40,
  0x03, 0x40, 0x1b, 0x07, 0x2b, 0x08, 0x29, 0xe8, 0x41, 0x20, 0xcf, 0x43,
  0x01, 0x55, 0xfc, 0x43, 0x02, 0xfb, 0x02, 0x19, 0xfe, 0x12, 0x1f, 0x43,
  0x26, 0x03, 0xfd, 0x04, 0x0c, 0x46, 0xfc, 0xed, 0xfe, 0x4b, 0x01, 0x02,
  0x2b, 0x04, 0x0d, 0xff, 0xd0, 0x36, 0xd9, 0xee, 0xf7, 0x06, 0x06, 0xfd,
  0x51, 0x41, 0x03, 0x3a, 0x1f, 0x0c, 0x2d, 0x01, 0x2c, 0xea, 0x3d, 0x1f,
  0xd0, 0x48, 0x00, 0x59, 0xfd, 0x3d, 0x02, 0xfa, 0x07, 0x1b, 0x00, 0x0b,
  0x24, 0x48, 0x2b, 0xff, 0x05, 0xfb, 0x0e, 0x46, 0xff, 0xf0, 0x05, 0x4f,
  0xf7, 0x04, 0x26, 0x06, 0x10, 0x02, 0xd0, 0x34, 0xd4, 0xeb, 0xfb, 0x08,
  0x06, 0xfd, 0x49, 0x41, 0xfd, 0x2c, 0x1f, 0x0d, 0x24, 0x08, 0x30, 0xea,
  0x3e, 0x1d, 0xd3, 0x3f, 0x01, 0x54, 0xfa, 0x40, 0xfe, 0x02, 0x08, 0x1f,
  0xfc, 0x13, 0x1d, 0x41, 0x21, 0x02, 0x01, 0x05, 0x16, 0x3f, 0x01, 0xf1,
  0x03, 0x4b, 0xfa, 0xff, 0x2a, 0x05, 0x0b, 0x03, 0xd7, 0x2f, 0xd2, 0xe9,
  0xf3, 0x0a, 0xfc, 0x05, 0x4d, 0x49, 0x01, 0x2d, 0x1d, 0x0a, 0x2d, 0x09,
  0x2e, 0xea, 0x3f, 0x20, 0xca, 0x48, 0x07, 0x4e, 0xf7, 0x3d, 0xfb, 0xff,
  0xff, 0x20, 0x02, 0x0a, 0x1f, 0x3d, 0x29, 0xff, 0xff, 0xfe, 0x13, 0x47,
  0xfc, 0xf1, 0xfb, 0x49, 0xfb, 0xfb, 0x2f, 0xfe, 0x16, 0x04, 0xcd, 0x36,
  0xd8, 0xf1, 0xf2, 0x09, 0xfd, 0x05, 0x54, 0x4c, 0x03, 0x30, 0x20, 0x06,
  0x2b, 0xff, 0x2a, 0xe6, 0x39, 0x20, 0xcc, 0x42, 0x00, 0x53, 0x00, 0x3b,
  0xfd, 0xfe, 0x02, 0x1c, 0xff, 0x0d, 0x23, 0x42, 0x2b, 0x01, 0x03, 0xff,
  0x0e, 0x45, 0x01, 0xf5, 0xff, 0x51, 0xfd, 0x01, 0x2d, 0x04, 0x10, 0x05,
  0xcd, 0x35, 0xd8, 0xf0, 0xf0, 0x0a, 0x03, 0xfe, 0x56, 0x43, 0x04, 0x30,
  0x1b, 0x0f, 0x28, 0xfe, 0x32, 0xeb, 0x40, 0x20, 0xd1, 0x4e, 0x00, 0x56,
  0xfb, 0x3c, 0xfe, 0x01, 0x04, 0x1d, 0x02, 0x0f, 0x1d, 0x43, 0x30, 0x04,
  0x03, 0xff, 0x0f, 0x48, 0x03, 0xed, 0x01, 0x49, 0xf6, 0x04, 0x2b, 0xfe,
  0x0b, 0x02, 0xcb, 0x31, 0xd1, 0xe8, 0xf7, 0x09, 0x02, 0x01, 0x5b, 0x4a,
  0xff, 0x38, 0x20, 0x08, 0x30, 0xff, 0x31, 0xe1, 0x3f, 0x25, 0xcf, 0x48,
  0xfc, 0x54, 0xfb, 0x3c, 0x02, 0x00, 0x05, 0x20, 0xfb, 0x0c, 0x20, 0x4b,
  0x35, 0x07, 0xff, 0xfc, 0x0e, 0x45, 0x02, 0xee, 0x00, 0x4f, 0xf9, 0x04,
  0x35, 0x06, 0x16, 0xff, 0xd2, 0x3b, 0xd6, 0xee, 0xf5, 0x01, 0x03, 0xfc,
  0x53, 0x4f, 0xff, 0x31, 0x18, 0x0f, 0x30, 0x05, 0x30, 0xe9, 0x3e, 0x27,
  0xce, 0x48, 0x03, 0x50, 0xf9, 0x43, 0xfa, 0x05, 0x04, 0x1c, 0xfa, 0x0a,
  0x22, 0x44, 0x35, 0x03, 0xfa, 0x04, 0x10, 0x4b, 0x04, 0xef, 0x00, 0x4e,
  0xf5, 0x00, 0x32, 0x00, 0x0d, 0xff, 0xcf, 0x3a, 0xcd, 0xeb, 0xf5, 0x07,
  0xfa, 0xfb, 0x55, 0x4a, 0x01, 0x31, 0x1b, 0x0f, 0x30, 0x04, 0x2c, 0xe8,
  0x41, 0x25, 0xcb, 0x4e, 0xfe, 0x56, 0xf7, 0x45, 0x01, 0x07, 0x04, 0x25,
  0xf9, 0x0a, 0x22, 0x45, 0x2a, 0x04, 0xff, 0xfd, 0x0d, 0x43, 0xfa, 0xf4,
  0xfb, 0x51, 0xf9, 0xfb, 0x2f, 0xfd, 0x0d, 0x05, 0xd0, 0x37, 0xd2, 0xed,
  0xf2, 0x0b, 0x01, 0xfc, 0x4f, 0x4a, 0xfb, 0x2e, 0x1b, 0x0c, 0x2d, 0x00,
  0x32, 0xe7, 0x3e, 0x20, 0xd3, 0x49, 0xff, 0x51, 0xf7, 0x40, 0xf9, 0x05,
  0x03, 0x1d, 0xfb, 0x09, 0x1d, 0x43, 0x26, 0x02, 0xfb, 0x00, 0x12, 0x4c,
  0x02, 0xf6, 0xff, 0x4f, 0xf6, 0xfb, 0x39, 0xff, 0x0f, 0xfe, 0xc6, 0x36,
  0xd4, 0xec, 0xf1, 0x0b, 0xfd, 0x04, 0x54, 0x50, 0xff, 0x25, 0x1f, 0x11,
  0x33, 0x05, 0x2d, 0xe3, 0x3f, 0x25, 0xcb, 0x51, 0x05, 0x4f, 0xf6, 0x44,
  0xf8, 0x03, 0x05, 0x24, 0x01, 0x0a, 0x1a, 0x46, 0x2a, 0x06, 0xfe, 0xfb,
  0x18, 0x42, 0xfe, 0xf3, 0xfe, 0x4f, 0xf4, 0xfc, 0x3a, 0xff, 0x0d, 0x04,
  0xcb, 0x34, 0xd2, 0xeb, 0xf4, 0x06, 0x03, 0xfb, 0x51, 0x4a, 0x01, 0x30,
  0x21, 0x0c, 0x37, 0x03, 0x28, 0xe4, 0x3e, 0x25, 0xd4, 0x4d, 0x05, 0x51,
  0xf5, 0x47, 0xfd, 0xfe, 0x05, 0x1c, 0xfa, 0x14, 0x1b, 0x47, 0x29, 0x07,
  0x00, 0x03, 0x17, 0x45, 0x01, 0xed, 0xfd, 0x4c, 0xf3, 0x01, 0x3e, 0x01,
  0x0f, 0x04, 0xc6, 0x3b, 0xd6, 0xe4, 0xf1, 0x01, 0xfa, 0xff, 0x52, 0x4a,
  0xfb, 0x2f, 0x20, 0x0b, 0x38, 0x01, 0x2b, 0xe8, 0x3e, 0x24, 0xcc, 0x4a,
  0x00, 0x58, 0xfd, 0x43, 0xfd, 0x01, 0x01, 0x25, 0x00, 0x14, 0x24, 0x4b,
  0x26, 0x05, 0xf6, 0x06, 0x12, 0x47, 0xfe, 0xf6, 0x03, 0x4a, 0xf5, 0x01,
  0x36, 0xfe, 0x11, 0xfc, 0xcb, 0x3b, 0xd1, 0xe2, 0xf5, 0x0b, 0xfe, 0xfc,
  0x52, 0x4f, 0x01, 0x35, 0x1d, 0x13, 0x39, 0x02, 0x29, 0xe4, 0x46, 0x21,
  0xcd, 0x4f, 0x06, 0x55, 0xfb, 0x40, 0xfc, 0xfe, 0x06, 0x25, 0x01, 0x14,
  0x1c, 0x52, 0x2b, 0x02, 0xf7, 0x02, 0x0e, 0x40, 0xfb, 0xee, 0x04, 0x51,
  0xeb, 0xfe, 0x41, 0x05, 0x15, 0x03, 0xcf, 0x3d, 0xd8, 0xe9, 0xf1, 0x0a,
  0x03, 0xfb, 0x54, 0x4e, 0xff, 0x31, 0x1b, 0x10, 0x37, 0x01, 0x25, 0xea,
  0x42, 0x25, 0xd0, 0x52, 0xff, 0x4f, 0xf4, 0x3f, 0xfe, 0x00, 0x01, 0x23,
  0x03, 0x14, 0x20, 0x4b, 0x33, 0x00, 0xfb, 0xff, 0x0c, 0x49, 0xfd, 0xf3,
  0xfd, 0x4e, 0xe9, 0xfe, 0x40, 0x02, 0x14, 0xfd, 0xce, 0x43, 0xd7, 0xea,
  0xf0, 0x01, 0x04, 0xfa, 0x51, 0x51, 0x00, 0x36, 0x19, 0x12, 0x3c, 0xff,
  0x2c, 0xe8, 0x43, 0x22, 0xd3, 0x52, 0xfc, 0x54, 0xf1, 0x47, 0xfe, 0x02,
  0xff, 0x21, 0x05, 0x17, 0x24, 0x53, 0x2d, 0x06, 0xf0, 0x01, 0x0e, 0x44,
  0xfc, 0xf5, 0xfb, 0x48, 0xe9, 0xff, 0x43, 0x06, 0x0d, 0xfb, 0xca, 0x48,
  0xd7, 0xe6, 0xf1, 0x0a, 0xfd, 0x04, 0x58, 0x56, 0x02, 0x31, 0x1a, 0x11,
  0x32, 0x08, 0x28, 0xe3, 0x41, 0x2c, 0xd5, 0x51, 0xfd, 0x53, 0xf7, 0x49,
  0xfc, 0x00, 0x07, 0x29, 0x01, 0x12, 0x20, 0x4f, 0x36, 0x05, 0xee, 0xfd,
  0x0c, 0x4a, 0x05, 0xf7, 0x02, 0x46, 0xee, 0xfb, 0x44, 0x00, 0x0d, 0xf9,
  0xcb, 0x43, 0xd1, 0xe6, 0xf7, 0x05, 0xfa, 0xfd, 0x50, 0x55, 0x03, 0x3c,
  0x22, 0x15, 0x3e, 0x00, 0x2c, 0xe2, 0x46, 0x2b, 0xcc, 0x57, 0x03, 0x5a,
  0xf7, 0x45, 0x00, 0x02, 0x09, 0x26, 0x03, 0x12, 0x24, 0x51, 0x36, 0x07,
  0xf1, 0xfd, 0x0e, 0x4a, 0x01, 0xf7, 0xfb, 0x44, 0xe8, 0xfd, 0x41, 0x05,
  0x0d, 0x00, 0xc3, 0x44, 0xd5, 0xe1, 0xf8, 0x05, 0x02, 0x00, 0x5d, 0x59,
  0x05, 0x3a, 0x19, 0x0f, 0x40, 0x06, 0x25, 0xe7, 0x46, 0x20, 0xcd, 0x5b,
  0xff, 0x58, 0xf5, 0x49, 0xfa, 0xfc, 0x05, 0x22, 0xfe, 0x1a, 0x1b, 0x55,
  0x36, 0xff, 0xed, 0x02, 0x0f, 0x4a, 0x03, 0xf5, 0xfc, 0x51, 0xe7, 0x00,
  0x3d, 0x01, 0x16, 0xfd, 0xc2, 0x46, 0xd8, 0xe3, 0xf8, 0x0b, 0x00, 0xfe,
  0x57, 0x55, 0x03, 0x37, 0x1d, 0x18, 0x3f, 0x01, 0x22, 0xe5, 0x4b, 0x29,
  0xcc, 0x5e, 0x05, 0x58, 0xf8, 0x49, 0xfb, 0x01, 0x02, 0x25, 0x01, 0x16,
  0x1e, 0x5d, 0x36, 0x01, 0xf2, 0xfb, 0x0b, 0x4b, 0xff, 0xf8, 0x00, 0x53,
  0xe8, 0xff, 0x3d, 0xfd, 0x15, 0xf7, 0xc8, 0x4a, 0xcf, 0xe3, 0xf8, 0x02,
  0xfd, 0xfb, 0x64, 0x56, 0xfe, 0x39, 0x1a, 0x14, 0x40, 0x08, 0x27, 0xe4,
  0x51, 0x28, 0xd2, 0x62, 0xfe, 0x55, 0xf2, 0x4a, 0x05, 0xfc, 0x06, 0x2c,
  0x01, 0x1c, 0x1e, 0x5f, 0x36, 0x05, 0xef, 0x03, 0x14, 0x51, 0x01, 0xf8,
  0xfb, 0x54, 0xe0, 0xff, 0x3e, 0x00, 0x17, 0xf9, 0xbd, 0x52, 0xd7, 0xe8,
  0xf3, 0x0c, 0xf9, 0x03, 0x62, 0x58, 0x01, 0x36, 0x24, 0x18, 0x3b, 0x03,
  0x25, 0xe6, 0x52, 0x25, 0xd2, 0x5a, 0x01, 0x5e, 0xf5, 0x51, 0xfc, 0xfc,
  0x08, 0x2c, 0x07, 0x13, 0x23, 0x5f, 0x33, 0x02, 0xec, 0xfb, 0x10, 0x56,
  0x05, 0xf1, 0x00, 0x55, 0xdb, 0x04, 0x44, 0x05, 0x15, 0xf8, 0xc7, 0x4e,
  0xd0, 0xe9, 0xef, 0x02, 0x04, 0x00, 0x5f, 0x5a, 0x04, 0x3d, 0x19, 0x13,
  0x41, 0x04, 0x27, 0xe3, 0x4f, 0x22, 0xd3, 0x5e, 0xfd, 0x57, 0xf9, 0x4c,
  0xfc, 0xfb, 0x05, 0x30, 0x05, 0x1c, 0x1c, 0x5b, 0x3c, 0x01, 0xed, 0xfe,
  0x0a, 0x4e, 0x01, 0xf9, 0x02, 0x50, 0xe0, 0xfa, 0x48, 0x02, 0x12, 0xf8,
  0xc6, 0x4d, 0xd8, 0xe1, 0xf4, 0x02, 0x01, 0xff, 0x63, 0x5b, 0xfd, 0x3a,
  0x1f, 0x11, 0x48, 0x02, 0x1e, 0xe7, 0x50, 0x1c, 0xcd, 0x60, 0x04, 0x5e,
  0xf4, 0x4b, 0xfa, 0xef, 0x00, 0x28, 0x05, 0x18, 0x26, 0x58, 0x3c, 0x02,
  0xeb, 0x05, 0x12, 0x4d, 0xfc, 0xf5, 0xff, 0x4f, 0xdf, 0x03, 0x49, 0x00,
  0x11, 0xf5, 0xc3, 0x49, 0xd2, 0xe8, 0xf3, 0x06, 0x03, 0xfd, 0x68, 0x5c,
  0xfd, 0x45, 0x1d, 0x17, 0x45, 0xff, 0x22, 0xe5, 0x53, 0x19, 0xd1, 0x62,
  0x04, 0x5a, 0xf7, 0x4c, 0x00, 0xf1, 0x03, 0x26, 0xff, 0x1b, 0x21, 0x62,
  0x3e, 0x02, 0xeb, 0xfa, 0x07, 0x52, 0x01, 0xf3, 0x05, 0x52, 0xda, 0x03,
  0x3d, 0xff, 0x16, 0xf6, 0xbd, 0x4d, 0xd4, 0xe5, 0xf2, 0x07, 0xfc, 0x00,
  0x65, 0x55, 0xfc, 0x45, 0x23, 0x16, 0x41, 0x01, 0x1f, 0xef, 0x58, 0x1f,
  0xd1, 0x5f, 0xfb, 0x57, 0xfb, 0x54, 0xfe, 0xee, 0x01, 0x25, 0x06, 0x19,
  0x20, 0x57, 0x34, 0x00, 0xf4, 0x05, 0x0c, 0x4e, 0x00, 0xf7, 0xfb, 0x4b,
  0xd7, 0x04, 0x40, 0xff, 0x10, 0xfb, 0xc0, 0x49, 0xd6, 0xe7, 0xfa, 0x07,
  0xfd, 0xfc, 0x57, 0x58, 0x01, 0x3f, 0x1f, 0x11, 0x49, 0x02, 0x1c, 0xe7,
  0x50, 0x15, 0xd1, 0x5d, 0x00, 0x56, 0xf6, 0x50, 0x02, 0xee, 0x06, 0x28,
  0xff, 0x17, 0x23, 0x56, 0x28, 0x06, 0xee, 0x05, 0x0b, 0x4a, 0xfd, 0xf9,
  0x03, 0x4a, 0xd8, 0xfe, 0x39, 0xff, 0x14, 0xff, 0xbb, 0x4d, 0xde, 0xe3,
  0xf4, 0x05, 0x03, 0x01, 0x56, 0x56, 0x06, 0x37, 0x22, 0x10, 0x48, 0x05,
  0x1b, 0xe6, 0x4b, 0x17, 0xc9, 0x56, 0xfb, 0x4f, 0x01, 0x4e, 0xfa, 0xe4,
  0x05, 0x28, 0x09, 0x18, 0x1f, 0x5b, 0x25, 0x01, 0xef, 0x05, 0x0a, 0x4f,
  0x03, 0xef, 0x02, 0x4c, 0xd9, 0x00, 0x37, 0x04, 0x16, 0xf9, 0xbc, 0x4c,
  0xd9, 0xe7, 0xf7, 0x07, 0x02, 0xfb, 0x51, 0x4f, 0x05, 0x2f, 0x18, 0x0f,
  0x42, 0x02, 0x1a, 0xf1, 0x4f, 0x10, 0xc7, 0x54, 0xff, 0x56, 0xfc, 0x50,
  0x03, 0xeb, 0x05, 0x20, 0x01, 0x1a, 0x25, 0x53, 0x26, 0x07, 0xf4, 0x01,
  0x08, 0x49, 0x02, 0xf4, 0xfb, 0x47, 0xd6, 0xfb, 0x3b, 0x02, 0x1a, 0x02,
  0xbc, 0x42, 0xdb, 0xe9, 0xf6, 0x03, 0xff, 0x01, 0x55, 0x53, 0x04, 0x2e,
  0x1c, 0x13, 0x3b, 0x07, 0x17, 0xef, 0x4b, 0x0b, 0xc2, 0x50, 0x02, 0x51,
  0x00, 0x51, 0xfc, 0xe6, 0x09, 0x20, 0x06, 0x1b, 0x1d, 0x54, 0x23, 0x03,
  0xf2, 0x03, 0x0c, 0x4c, 0x01, 0xf9, 0xfc, 0x3d, 0xd9, 0xfd, 0x3a, 0x03,
  0x17, 0x00, 0xc0, 0x40, 0xda, 0xeb, 0xfd, 0x09, 0xfe, 0xfc, 0x50, 0x56,
  0xfa, 0x2d, 0x18, 0x10, 0x36, 0x0a, 0x1f, 0xeb, 0x4c, 0x02, 0xc2, 0x4e,
  0xfa, 0x50, 0xfe, 0x4c, 0xf7, 0xdc, 0x02, 0x1f, 0x01, 0x1c, 0x21, 0x5b,
  0x21, 0x01, 0xee, 0x03, 0x0e, 0x45, 0xff, 0xf5, 0x01, 0x37, 0xd5, 0x01,
  0x2c, 0x01, 0x16, 0xfe, 0xc2, 0x46, 0xda, 0xef, 0xfb, 0x0d, 0x01, 0x01,
  0x48, 0x54, 0xfc, 0x20, 0x1b, 0x12, 0x2a, 0x0a, 0x1e, 0xee, 0x41, 0x06,
  0xc5, 0x4c, 0xfe, 0x52, 0x01, 0x51, 0xff, 0xdc, 0x03, 0x22, 0x00, 0x1c,
  0x26, 0x56, 0x1b, 0x08, 0xec, 0x06, 0x0e, 0x4d, 0xfe, 0xf0, 0x05, 0x36,
  0xd5, 0xff, 0x2b, 0x03, 0x17, 0xfd, 0xbe, 0x3b, 0xda, 0xed, 0xf7, 0x0e,
  0x05, 0x03, 0x46, 0x55, 0x04, 0x22, 0x16, 0x08, 0x28, 0x04, 0x1a, 0xee,
  0x40, 0xf9, 0xbf, 0x56, 0xfc, 0x56, 0x04, 0x4e, 0xf6, 0xe0, 0x08, 0x20,
  0x06, 0x20, 0x1f, 0x55, 0x17, 0x08, 0xf6, 0xfa, 0x0a, 0x4b, 0x04, 0xf3,
  0xfa, 0x2f, 0xd7, 0x05, 0x2a, 0x06, 0x18, 0x01, 0xbc, 0x3c, 0xe3, 0xe7,
  0xfb, 0x0a, 0x07, 0x05, 0x4b, 0x55, 0xfb, 0x1b, 0x1a, 0x09, 0x21, 0x0a,
  0x1f, 0xee, 0x44, 0xff, 0xc0, 0x4e, 0x02, 0x59, 0xff, 0x4e, 0xf6, 0xdd,
  0xff, 0x24, 0x0a, 0x17, 0x25, 0x54, 0x15, 0x04, 0xf4, 0xfb, 0x0c, 0x4c,
  0xfb, 0xf7, 0xff, 0x35, 0xcf, 0x01, 0x2b, 0x05, 0x16, 0x03, 0xb8, 0x33,
  0xdb, 0xf1, 0xfc, 0x0b, 0x01, 0xfc, 0x46, 0x53, 0xfd, 0x1d, 0x1b, 0x09,
  0x27, 0x09, 0x1b, 0xf2, 0x3f, 0xf7, 0xbc, 0x4b, 0xfb, 0x5a, 0xfc, 0x57,
  0xf7, 0xde, 0x08, 0x24, 0x07, 0x1b, 0x22, 0x58, 0x18, 0x0a, 0xf7, 0xfb,
  0x03, 0x4e, 0xfe, 0xf4, 0x03, 0x30, 0xd9, 0x01, 0x1f, 0x0b, 0x13, 0x01,
  0xbb, 0x3a, 0xdc, 0xed, 0xfe, 0x06, 0x09, 0x04, 0x48, 0x52, 0xfc, 0x2a,
  0x19, 0x0b, 0x24, 0x01, 0x20, 0xee, 0x39, 0xfa, 0xc3, 0x49, 0xff, 0x51,
  0xfd, 0x51, 0xf5, 0xd9, 0xfe, 0x1e, 0x04, 0x18, 0x24, 0x4f, 0x1c, 0x0b,
  0xf9, 0xfc, 0x0a, 0x4f, 0x01, 0xf0, 0x01, 0x32, 0xd4, 0x00, 0x1e, 0x09,
  0x1d, 0x02, 0xc2, 0x34, 0xde, 0xf0, 0xfc, 0x08, 0x01, 0x00, 0x4b, 0x48,
  0x03, 0x24, 0x1f, 0x0c, 0x23, 0x00, 0x1e, 0xe9, 0x3a, 0xf5, 0xbc, 0x47,
  0xfd, 0x50, 0x04, 0x4f, 0xf6, 0xd8, 0x01, 0x1d, 0x09, 0x20, 0x28, 0x50,
  0x20, 0x02, 0xf6, 0xfd, 0x0c, 0x48, 0xff, 0xf4, 0xfb, 0x32, 0xda, 0xfb,
  0x22, 0x09, 0x18, 0x03, 0xbf, 0x2d, 0xe2, 0xe9, 0x03, 0x09, 0x03, 0x00,
  0x48, 0x4f, 0xfc, 0x27, 0x1b, 0x0c, 0x1b, 0x05, 0x1e, 0xe8, 0x3a, 0xf7,
  0xba, 0x48, 0xfb, 0x4f, 0xfe, 0x4d, 0xfd, 0xdd, 0xff, 0x21, 0x05, 0x20,
  0x23, 0x4e, 0x1f, 0x09, 0xf5, 0x04, 0x06, 0x4c, 0xff, 0xf6, 0xfb, 0x3e,
  0xd3, 0xfb, 0x22, 0x07, 0x16, 0x07, 0xbe, 0x2e, 0xe6, 0xec, 0xfe, 0x0f,
  0x09, 0x01, 0x40, 0x4d, 0xfc, 0x27, 0x17, 0x11, 0x1f, 0x05, 0x21, 0xe9,
  0x36, 0xf6, 0xc3, 0x4a, 0x01, 0x50, 0x03, 0x53, 0xf5, 0xd7, 0x06, 0x1a,
  0x09, 0x1d, 0x24, 0x4d, 0x1d, 0x0b, 0xf8, 0x04, 0x09, 0x4a, 0x01, 0xf8,
  0x01, 0x3d, 0xd6, 0x03, 0x1c, 0x0b, 0x14, 0xff, 0xbe, 0x2f, 0xe1, 0xe9,
  0xfa, 0x0c, 0x09, 0x02, 0x45, 0x4d, 0xfe, 0x2e, 0x16, 0x09, 0x1f, 0x0a,
  0x1d, 0xe6, 0x31, 0xf3, 0xbb, 0x44, 0x02, 0x55, 0x09, 0x54, 0xfd, 0xde,
  0x00, 0x19, 0x01, 0x1b, 0x26, 0x56, 0x24, 0x02, 0xf6, 0x02, 0x03, 0x44,
  0x00, 0xf7, 0xfd, 0x36, 0xda, 0x02, 0x25, 0x04, 0x1e, 0x04, 0xbf, 0x2f,
  0xe4, 0xe8, 0xff, 0x07, 0x0a, 0xfd, 0x46, 0x48, 0xfd, 0x24, 0x14, 0x0e,
  0x24, 0x04, 0x1c, 0xe6, 0x31, 0xf3, 0xbd, 0x4d, 0x04, 0x50, 0xff, 0x51,
  0xf5, 0xd7, 0x05, 0x1f, 0x07, 0x19, 0x23, 0x56, 0x1a, 0x07, 0xf2, 0xfc,
  0x0c, 0x48, 0x04, 0xf8, 0x03, 0x30, 0xd8, 0xfc, 0x26, 0x0c, 0x1c, 0x01,
  0xbd, 0x33, 0xe4, 0xee, 0xf8, 0x0e, 0x07, 0x05, 0x3d, 0x50, 0xfd, 0x28,
  0x1d, 0x0f, 0x28, 0x03, 0x25, 0xe3, 0x36, 0xeb, 0xba, 0x42, 0xfd, 0x4a,
  0x03, 0x4f, 0xfd, 0xd4, 0x01, 0x20, 0x05, 0x19, 0x26, 0x56, 0x1c, 0x04,
  0xf3, 0xfd, 0x09, 0x3e, 0xfc, 0xf5, 0x03, 0x2f, 0xd5, 0x04, 0x21, 0x05,
  0x15, 0x05, 0xbe, 0x2b, 0xed, 0xe4, 0xfb, 0x06, 0x06, 0x04, 0x40, 0x51,
  0x02, 0x26, 0x12, 0x0e, 0x24, 0x05, 0x20, 0xe4, 0x2a, 0xee, 0xbf, 0x43,
  0x05, 0x4d, 0x06, 0x57, 0xfe, 0xda, 0x05, 0x1d, 0x01, 0x18, 0x25, 0x4c,
  0x1c, 0x00, 0xf3, 0xff, 0x03, 0x40, 0x00, 0xf6, 0x01, 0x32, 0xd0, 0xfa,
  0x25, 0x0c, 0x14, 0x00, 0xc3, 0x2d, 0xe3, 0xe5, 0xf9, 0x0e, 0xff, 0x01,
  0x47, 0x4e, 0xfc, 0x2f, 0x1c, 0x10, 0x2a, 0x06, 0x27, 0xe4, 0x32, 0xee,
  0xc1, 0x45, 0xfd, 0x53, 0x01, 0x51, 0xf7, 0xd9, 0x03, 0x1f, 0x07, 0x18,
  0x21, 0x4e, 0x21, 0x06, 0xfd, 0xfb, 0x06, 0x3c, 0xfe, 0xf1, 0xfb, 0x33,
  0xd5, 0xfe, 0x22, 0x02, 0x17, 0x06, 0xbf, 0x2a, 0xe7, 0xeb, 0xfd, 0x04,
  0x07, 0x01, 0x43, 0x49, 0x02, 0x2e, 0x1a, 0x09, 0x25, 0x06, 0x25, 0xe2,
  0x2e, 0xee, 0xc6, 0x42, 0x04, 0x52, 0x06, 0x53, 0xf8, 0xda, 0x09, 0x1c,
  0x06, 0x1c, 0x21, 0x55, 0x17, 0x06, 0xf6, 0x05, 0x06, 0x3e, 0xfc, 0xf5,
  0xfe, 0x3d, 0xd3, 0xfc, 0x29, 0x04, 0x1b, 0x09, 0xc4, 0x30, 0xed, 0xe8,
  0xf7, 0x0d, 0x06, 0xfd, 0x4a, 0x53, 0xfa, 0x27, 0x14, 0x0b, 0x27, 0x02,
  0x20, 0xe3, 0x2e, 0xf6, 0xc7, 0x44, 0x05, 0x56, 0x03, 0x54, 0xf5, 0xd9,
  0xff, 0x21, 0xff, 0x18, 0x22, 0x52, 0x1a, 0x03, 0xf7, 0x04, 0x0d, 0x3f,
  0x00, 0xf3, 0xfc, 0x39, 0xd1, 0xfe, 0x24, 0x03, 0x19, 0x00, 0xbe, 0x2b,
  0xe3, 0xe6, 0xff, 0x0b, 0x02, 0xfc, 0x4a, 0x4a, 0xfe, 0x32, 0x1d, 0x12,
  0x2a, 0x09, 0x1e, 0xe6, 0x29, 0xf3, 0xc0, 0x49, 0x02, 0x4e, 0x04, 0x4e,
  0xf6, 0xd3, 0x04, 0x1a, 0x05, 0x21, 0x1d, 0x4e, 0x1d, 0x05, 0xf3, 0x05,
  0x09, 0x3e, 0x00, 0xf0, 0xfb, 0x3c, 0xd4, 0x03, 0x23, 0x07, 0x19, 0x04,
  0xc4, 0x36, 0xe3, 0xe6, 0xfd, 0x0a, 0x05, 0xfb, 0x48, 0x53, 0xff, 0x2c,
  0x1d, 0x08, 0x30, 0x06, 0x26, 0xe4, 0x2e, 0xfa, 0xc0, 0x50, 0xfc, 0x54,
  0xfe, 0x50, 0xfa, 0xda, 0x08, 0x1d, 0x06, 0x1a, 0x20, 0x50, 0x22, 0x09,
  0xf8, 0xfc, 0x0b, 0x47, 0xfd, 0xf4, 0x03, 0x35, 0xd6, 0x00, 0x2b, 0x03,
  0x15, 0xfe, 0xc5, 0x30, 0xe4, 0xe5, 0xf8, 0x0a, 0x06, 0xff, 0x46, 0x51,
  0xff, 0x30, 0x1e, 0x0f, 0x32, 0x09, 0x25, 0xe7, 0x2f, 0xf5, 0xcc, 0x4f,
  0xfb, 0x53, 0x06, 0x51, 0xf8, 0xdb, 0x09, 0x1f, 0x07, 0x18, 0x1e, 0x51,
  0x21, 0x0a, 0xf7, 0x04, 0x0c, 0x3f, 0x02, 0xf4, 0x04, 0x36, 0xdc, 0x02,
  0x24, 0x06, 0x1b, 0x05, 0xbc, 0x3b, 0xe4, 0xe4, 0xfb, 0x0c, 0x06, 0x01,
  0x46, 0x50, 0x00, 0x36, 0x1b, 0x0a, 0x32, 0x0a, 0x1e, 0xe6, 0x2c, 0xf3,
  0xc3, 0x49, 0x02, 0x53, 0xff, 0x53, 0x00, 0xdc, 0x04, 0x1b, 0x02, 0x21,
  0x22, 0x4f, 0x20, 0x00, 0xf7, 0xfe, 0x02, 0x42, 0x00, 0xf1, 0xff, 0x41,
  0xd6, 0x05, 0x28, 0x03, 0x1b, 0x05, 0xc1, 0x32, 0xef, 0xe3, 0xfd, 0x04,
  0x09, 0xfc, 0x46, 0x49, 0x00, 0x36, 0x14, 0x0d, 0x2c, 0x03, 0x26, 0xea,
  0x2a, 0xfb, 0xc6, 0x4a, 0x05, 0x4d, 0x06, 0x50, 0xfe, 0xdd, 0x05, 0x23,
  0x07, 0x1f, 0x26, 0x4e, 0x22, 0x09, 0xf7, 0xff, 0x0a, 0x3e, 0x05, 0xf4,
  0x00, 0x38, 0xdb, 0x05, 0x2a, 0x06, 0x14, 0x01, 0xc2, 0x3a, 0xe5, 0xe7,
  0xfe, 0x03, 0x01, 0x06, 0x45, 0x4c, 0x05, 0x31, 0x17, 0x0c, 0x31, 0x08,
  0x27, 0xe8, 0x30, 0xf2, 0xcd, 0x48, 0x00, 0x48, 0x07, 0x4a, 0xfc, 0xdc,
  0xfe, 0x1f, 0xfd, 0x1d, 0x20, 0x53, 0x21, 0x00, 0xf8, 0x02, 0x0c, 0x43,
  0xfb, 0xf7, 0xfa, 0x3a, 0xdc, 0xfb, 0x25, 0x09, 0x1c, 0x06, 0xc1, 0x36,
  0xe8, 0xe7, 0xfa, 0x0a, 0x00, 0xff, 0x41, 0x4e, 0x01, 0x27, 0x16, 0x0a,
  0x2b, 0x07, 0x21, 0xe8, 0x2b, 0xfa, 0xcb, 0x4e, 0x04, 0x50, 0xff, 0x4a,
  0x01, 0xde, 0x06, 0x20, 0x07, 0x14, 0x1f, 0x53, 0x1c, 0x07, 0xfb, 0x01,
  0x05, 0x3d, 0x00, 0xf9, 0xfb, 0x3a, 0xdb, 0x03, 0x26, 0x08, 0x18, 0x05,
  0xc6, 0x35, 0xeb, 0xe7, 0xfb, 0x0a, 0x08, 0xfc, 0x3c, 0x4e, 0x06, 0x27,
  0x13, 0x13, 0x2b, 0x00, 0x29, 0xed, 0x22, 0xf7, 0xc3, 0x47, 0xfe, 0x51,
  0x01, 0x4f, 0xf8, 0xdf, 0xff, 0x1c, 0xfd, 0x1b, 0x26, 0x4e, 0x1a, 0x00,
  0xfc, 0xfe, 0x0b, 0x43, 0xfd, 0xf9, 0x05, 0x2e, 0xdb, 0x02, 0x2a, 0x03,
  0x1b, 0x04, 0xc3, 0x2b, 0xec, 0xed, 0xf9, 0x04, 0x02, 0x02, 0x3d, 0x4b,
  0x03, 0x25, 0x19, 0x0f, 0x28, 0x00, 0x26, 0xea, 0x26, 0xf8, 0xca, 0x47,
  0xff, 0x49, 0x05, 0x4c, 0xfc, 0xde, 0x06, 0x17, 0x00, 0x1f, 0x20, 0x53,
  0x1d, 0x02, 0xf8, 0x04, 0x0c, 0x43, 0x01, 0xf4, 0xfd, 0x2e, 0xdc, 0xfc,
  0x26, 0x02, 0x19, 0x00, 0xc8, 0x31, 0xe9, 0xe5, 0xff, 0x07, 0x02, 0xfc,
  0x39, 0x4a, 0xff, 0x22, 0x18, 0x0a, 0x20, 0x03, 0x26, 0xe2, 0x2c, 0xf5,
  0xcd, 0x4c, 0x03, 0x4a, 0xfe, 0x51, 0xf9, 0xdc, 0x07, 0x20, 0xfd, 0x1b,
  0x1e, 0x52, 0x15, 0x04, 0xf7, 0xfb, 0x06, 0x43, 0x00, 0xf9, 0xfe, 0x2d,
  0xd9, 0xfa, 0x23, 0x0b, 0x15, 0x02, 0xc0, 0x33, 0xe2, 0xe7, 0xf7, 0x09,
  0x03, 0x02, 0x39, 0x4f, 0xff, 0x1e, 0x19, 0x09, 0x20, 0x00, 0x29, 0xe9,
  0x2c, 0xf7, 0xc5, 0x49, 0xfb, 0x4e, 0x03, 0x50, 0xff, 0xe0, 0xff, 0x22,
  0xfd, 0x17, 0x1e, 0x50, 0x12, 0x04, 0xf2, 0xfc, 0x04, 0x44, 0xfd, 0xef,
  0xfb, 0x31, 0xd9, 0x05, 0x20, 0x0b, 0x17, 0x00, 0xc2, 0x2c, 0xe7, 0xe5,
  0xf5, 0x04, 0xff, 0xfc, 0x3b, 0x52, 0xff, 0x17, 0x16, 0x0d, 0x1f, 0x00,
  0x27, 0xe3, 0x29, 0xf8, 0xc8, 0x4f, 0xff, 0x51, 0xff, 0x4e, 0xff, 0xe1,
  0x08, 0x1d, 0xff, 0x1e, 0x22, 0x53, 0x18, 0x02, 0xfa, 0xfc, 0x04, 0x3b,
  0xfc, 0xee, 0xfc, 0x2e, 0xde, 0x00, 0x28, 0x04, 0x14, 0x00, 0xc6, 0x2f,
  0xe2, 0xea, 0xfd, 0x06, 0x02, 0x00, 0x3b, 0x50, 0xfb, 0x1f, 0x1b, 0x0f,
  0x28, 0x07, 0x20, 0xe1, 0x25, 0xfb, 0xc5, 0x4d, 0x04, 0x53, 0xfd, 0x4d,
  0xfa, 0xe1, 0x06, 0x1e, 0x06, 0x17, 0x23, 0x50, 0x0e, 0x05, 0xf2, 0xfb,
  0x0c, 0x3f, 0xfd, 0xf5, 0xfe, 0x33, 0xd7, 0xfc, 0x2a, 0x03, 0x18, 0xff,
  0xc0, 0x39, 0xe5, 0xeb, 0xf5, 0x0a, 0x07, 0x01, 0x3e, 0x52, 0xfd, 0x14,
  0x14, 0x0d, 0x21, 0xff, 0x20, 0xe9, 0x2c, 0xf8, 0xc4, 0x49, 0x02, 0x4b,
  0xfc, 0x53, 0xfb, 0xdc, 0x01, 0x23, 0x07, 0x1e, 0x24, 0x56, 0x12, 0x02,
  0xf1, 0xff, 0x0b, 0x3a, 0x01, 0xf8, 0xfd, 0x33, 0xe0, 0x03, 0x23, 0x04,
  0x15, 0x01, 0xc7, 0x39, 0xe7, 0xe5, 0xf5, 0x03, 0x08, 0xfb, 0x41, 0x51,
  0xfa, 0x18, 0x18, 0x14, 0x27, 0x08, 0x20, 0xe7, 0x25, 0xfa, 0xc8, 0x4b,
  0xfd, 0x49, 0xfd, 0x54, 0xfb, 0xe0, 0x02, 0x20, 0x02, 0x1d, 0x1f, 0x4f,
  0x18, 0x07, 0xf5, 0x04, 0x04, 0x40, 0xfb, 0xf1, 0x00, 0x33, 0xdc, 0x04,
  0x28, 0x0b, 0x19, 0x07, 0xc6, 0x32, 0x02, 0x00, 0x01, 0xfb, 0xff, 0x01,
  0xfa, 0xfe, 0xfe, 0x04, 0x00, 0x01, 0x05, 0xfd, 0x00, 0x04, 0xff, 0x04,
  0x01, 0x03, 0x03, 0xfc, 0xfd, 0x03, 0x04, 0x01, 0xfc, 0xff, 0x02, 0x00,
  0x01, 0x00, 0xff, 0x04, 0x00, 0x01, 0x00, 0xfc, 0xfc, 0x04, 0x05, 0xfd,
  0xfc, 0x01, 0x05, 0x05, 0x01, 0xff, 0x00, 0xff, 0x01, 0x00, 0x03, 0x03,
  0xfa, 0x01, 0xff, 0x02, 0x01, 0x02, 0x03, 0xfd, 0x02, 0xfe, 0x02, 0xfd,
  0xfc, 0xff, 0xfe, 0xfb, 0x01, 0x02, 0x00, 0x02, 0x02, 0x00, 0xfd, 0xfc,
  0xfb, 0x05, 0x01, 0xfe, 0x01, 0x02, 0x04, 0x05, 0xfe, 0x04, 0xff, 0xfe,
  0x05, 0xfb, 0xfe, 0x03, 0x01, 0x01, 0xfd, 0xfc, 0x02, 0xff, 0xfb, 0x05,
  0xfe, 0x05, 0x01, 0xfc, 0x05, 0x05, 0xfc, 0x01, 0xfe, 0x00, 0xfc, 0x03,
  0xff, 0x03, 0x02, 0x02, 0xfa, 0xfc, 0x04, 0xfc, 0x03, 0x05, 0xfe, 0x04,
  0xff, 0xfc, 0x03, 0x01, 0x01, 0xfe, 0x03, 0x04, 0xfe, 0xfd, 0x03, 0x04,
  0xfb, 0x02, 0x00, 0xfe, 0x01, 0xfd, 0xff, 0x04, 0xfe, 0xfe, 0x03, 0xfd,
  0x01, 0x01, 0xff, 0x03, 0xfc, 0xff, 0x03, 0x02, 0x02, 0x05, 0x03, 0x04,
  0x00, 0xfa, 0xfd, 0x04, 0xfd, 0xfb, 0xfd, 0xfe, 0x00, 0xfc, 0xfb, 0xfe,
  0xfa, 0xff, 0xfb, 0x03, 0x03, 0x01, 0x00, 0x01, 0x00, 0x04, 0x00, 0xfa,
  0x04, 0xfc, 0xfd, 0x00, 0xfe, 0x06, 0xfd, 0x03, 0x00, 0xfe, 0xfc, 0x01,
  0xfc, 0x04, 0xfe, 0xfb, 0x00, 0xfb, 0x04, 0x03, 0x00, 0xfe, 0xfb, 0xfa,
  0x02, 0x03, 0xfe, 0xff, 0x01, 0x05, 0xff, 0xfd, 0xfd, 0x03, 0x04, 0x03,
  0xfd, 0xfe, 0xfb, 0xfd, 0x01, 0xfd, 0x01, 0xfd, 0x04, 0xfe, 0xfe, 0xfc,
  0x02, 0xfe, 0x03, 0xff, 0xfb, 0x00, 0x02, 0x01, 0xfa, 0x04, 0x04, 0x03,
  0x05, 0xfe, 0x00, 0x03, 0xfa, 0x02, 0xff, 0x00, 0xfc, 0xfd, 0x03, 0xfd,
  0x02, 0xff, 0x04, 0xfb, 0xfd, 0xfa, 0x03, 0xfd, 0x05, 0x00, 0xff, 0x02,
  0x02, 0x03, 0xfe, 0x01, 0x05, 0x00, 0x04, 0xfd, 0xfa, 0x01, 0xfd, 0x01,
  0x01, 0xfa, 0xfc, 0xff, 0xfd, 0xff, 0xfd, 0xfd, 0xfc, 0xfd, 0x01, 0x05,
  0xfd, 0x03, 0x00, 0x04, 0xfe, 0x05, 0x03, 0x00, 0xfb, 0xfb, 0x04, 0xfc,
  0xfb, 0x00, 0x03, 0xff, 0xfc, 0x01, 0x02, 0xfe, 0x04, 0xff, 0x05, 0x01,
  0x04, 0xfd, 0xfd, 0xfa, 0x00, 0x00, 0x05, 0x04, 0x00, 0x00, 0x02, 0xfb,
  0xfb, 0xfe, 0xfb, 0x03, 0x01, 0xfd, 0x04, 0xfc, 0x02, 0x03, 0xff, 0x00,
  0x02, 0xfb, 0x05, 0xfb, 0x00, 0x01, 0x02, 0xff, 0x00, 0xfb, 0xfd, 0xfb,
  0x03, 0xfe, 0xfb, 0xff, 0xfb, 0xfc, 0x01, 0xfc, 0xfc, 0x01, 0xfb, 0x05,
  0x01, 0x00, 0x01, 0x02, 0x04, 0x04, 0xfb, 0xfe, 0x01, 0xfb, 0x05, 0xfc,
  0xfe, 0xff, 0x00, 0x04, 0xfa, 0x03, 0xfc, 0x02, 0x04, 0x05, 0xfc, 0x01,
  0xfb, 0xfd, 0xfc, 0x04, 0xfc, 0xfa, 0x03, 0xff, 0xff, 0xfb, 0x04, 0x03,
  0x01, 0xfc, 0xfe, 0xfe, 0x04, 0xff, 0xfb, 0x00, 0x05, 0x05, 0x03, 0x03,
  0xff, 0x04, 0xfd, 0xfc, 0xfd, 0xfa, 0xfb, 0xfe, 0x03, 0xfb, 0xfa, 0xfe,
  0xfb, 0x02, 0x00, 0x02, 0xfd, 0x02, 0x00, 0xfe, 0x02, 0xfe, 0xff, 0xfc,
  0xfc, 0xfe, 0xfd, 0xfc, 0x05, 0x03, 0x04, 0x05, 0xfd, 0xff, 0x05, 0x04,
  0xff, 0xfc, 0xfe, 0xfb, 0x02, 0xff, 0x04, 0xfa, 0xfd, 0xff, 0x03, 0xff,
  0xfd, 0x03, 0x02, 0x00, 0xff, 0xfe, 0xfc, 0xfd, 0xfe, 0x02, 0xfb, 0xfe,
  0xff, 0xfb, 0x03, 0x02, 0x00, 0xfc, 0xfd, 0x00, 0xfc, 0x05, 0x04, 0xfb,
  0xfa, 0x01, 0x06, 0x04, 0x05, 0x02, 0x01, 0xfe, 0x04, 0x00, 0x02, 0x04,
  0xff, 0xfe, 0x06, 0x03, 0xfc, 0xff, 0xfd, 0x04, 0x04, 0x05, 0x01, 0x00,
  0xfe, 0x00, 0xfb, 0x02, 0xfa, 0x03, 0x01, 0x01, 0xfe, 0xfe, 0xfc, 0xfd,
  0x02, 0xfc, 0xfc, 0xfd, 0xff, 0xfc, 0xfd, 0x02, 0xff, 0x02, 0xff, 0xfc,
  0xfb, 0x04, 0x03, 0x00, 0xfd, 0xfd, 0x04, 0x02, 0x01, 0x02, 0xfe, 0x04,
  0x00, 0xfb, 0xfe, 0x03, 0xfc, 0x03, 0xfd, 0xff, 0x04, 0x01, 0x03, 0xfc,
  0x02, 0x05, 0x01, 0x02, 0xfc, 0xfb, 0x00, 0xff, 0xfc, 0x02, 0x02, 0xff,
  0x00, 0xfd, 0xfa, 0xff, 0x00, 0x03, 0xfd, 0x01, 0xfb, 0x00, 0xfa, 0x02,
  0x05, 0xfd, 0xfa, 0xfe, 0xfd, 0x04, 0x03, 0x03, 0x06, 0x01, 0xff, 0x05,
  0xfd, 0xfc, 0x02, 0xfc, 0xfd, 0x01, 0x06, 0x03, 0xfe, 0xfc, 0xfb, 0xfd,
  0xfd, 0xfb, 0xfd, 0x02, 0xfa, 0x01, 0x01, 0x00, 0x04, 0x04, 0x03, 0xfb,
  0xff, 0x05, 0xfe, 0x01, 0x05, 0xfd, 0xff, 0x04, 0xfb, 0x03, 0x04, 0xfb,
  0x02, 0x03, 0xff, 0xfa, 0x05, 0xfc, 0xfd, 0x01, 0xfb, 0xfc, 0x00, 0x03,
  0x00, 0x05, 0x04, 0xfb, 0x04, 0x03, 0x04, 0x04, 0x01, 0x04, 0x00, 0xfa,
  0x02, 0x02, 0xfb, 0xfb, 0x04, 0x01, 0xfd, 0x00, 0xfb, 0x02, 0x04, 0x04,
  0xfd, 0x00, 0xfd, 0x01, 0xff, 0x02, 0x00, 0xfe, 0x03, 0x04, 0x04, 0xfd,
  0x02, 0x05, 0xff, 0x05, 0xfb, 0x01, 0x01, 0xfe, 0x02, 0xfd, 0x03, 0xfc,
  0x05, 0xfa, 0xff, 0x00, 0x04, 0x05, 0xfa, 0x05, 0xfe, 0xfd, 0xfc, 0x01,
  0xfd, 0x01, 0xfb, 0xfe, 0x03, 0x01, 0x02, 0xfc, 0xfc, 0x04, 0x02, 0xfa,
  0x01, 0x01, 0x04, 0xfd, 0xfc, 0xfd, 0x02, 0xfe, 0x01, 0xff, 0x01, 0xff,
  0xfb, 0x05, 0xfd, 0xfe, 0x04, 0x03, 0x04, 0xfe, 0x01, 0x04, 0x05, 0x05,
  0x02, 0x04, 0xfe, 0x05, 0x01, 0xff, 0x03, 0xfd, 0xfa, 0xfe, 0xfc, 0xfe,
  0xfc, 0xfa, 0xfb, 0xfd, 0xfb, 0xfb, 0xff, 0x00, 0xfc, 0x01, 0x00, 0xff,
  0x02, 0x01, 0x03, 0x03, 0x00, 0xfd, 0x04, 0xfe, 0x01, 0x02, 0x02, 0xfb,
  0x03, 0x03, 0xfa, 0xfa, 0x03, 0x04, 0xff, 0x02, 0x02, 0x04, 0x03, 0xfd,
  0x02, 0xfa, 0x00, 0xfc, 0xfb, 0x00, 0x00, 0xfd, 0x05, 0xff, 0xfa, 0x04,
  0xff, 0xfb, 0xfd, 0x03, 0xfb, 0x04, 0xfd, 0xfc, 0xfd, 0xfe, 0xfb, 0x05,
  0xfc, 0x04, 0x00, 0xfe, 0xfd, 0x05, 0x03, 0x05, 0xfd, 0x02, 0xfc, 0x04,
  0x04, 0xfd, 0x00, 0x02, 0xfe, 0x04, 0xfa, 0xfb, 0xfe, 0xfd, 0x04, 0x00,
  0xfa, 0x02, 0x01, 0x03, 0xfe, 0x01, 0xfc, 0xfd, 0x03, 0xfe, 0x02, 0x03,
  0xfa, 0xfa, 0x02, 0x03, 0xfe, 0x00, 0x03, 0x02, 0x03, 0x00, 0xfd, 0x03,
  0xfa, 0x00, 0xff, 0xfd, 0xff, 0xfd, 0x04, 0x01, 0x00, 0xfe, 0xff, 0xfd,
  0xfd, 0x04, 0xfd, 0xff, 0xff, 0xfc, 0x02, 0x00, 0xfb, 0xff, 0xff, 0x05,
  0x04, 0x02, 0x03, 0x01, 0xfb, 0xfe, 0x02, 0x03, 0x04, 0x04, 0x01, 0xfa,
  0xfe, 0x01, 0xfc, 0x02, 0x00, 0x02, 0xfc, 0xfb, 0xfb, 0xfd, 0x02, 0xfc,
  0x05, 0xff, 0x04, 0xfd, 0x02, 0xff, 0xfe, 0x05, 0x02, 0x04, 0x05, 0xfb,
  0x03, 0x04, 0x02, 0x02, 0x03, 0xfd, 0xfd, 0x03, 0xfd, 0xfd, 0xfb, 0xfd,
  0x02, 0x01, 0x01, 0xfd, 0x01, 0x00, 0x01, 0xfa, 0x05, 0x01, 0x03, 0xff,
  0xfd, 0x04, 0xfe, 0x00, 0x05, 0xff, 0x04, 0x00, 0xff, 0x05, 0x02, 0xfe,
  0x05, 0x00, 0xff, 0x00, 0x02, 0x04, 0x02, 0xfe, 0x03, 0x00, 0xfa, 0x00,
  0xfc, 0xfe, 0xfe, 0x00, 0x04, 0x01, 0xfc, 0xff, 0x00, 0x02, 0xfd, 0xfe,
  0xfc, 0xfe, 0xfb, 0x05, 0x02, 0xff, 0xfa, 0x03, 0x04, 0xfc, 0x02, 0x03,
  0x04, 0x03, 0x04, 0x01, 0xfd, 0x03, 0xfb, 0xfe, 0x04, 0x02, 0x03, 0xfe,
  0x04, 0xfc, 0x04, 0x01, 0x02, 0x01, 0xfb, 0xfa, 0x02, 0xfd, 0x02, 0x05,
  0xfc, 0xfe, 0xfb, 0x03, 0x00, 0x02, 0xff, 0xff, 0x04, 0x04, 0xfd, 0x05,
  0x00, 0xfa, 0xfc, 0xfd, 0x03, 0x02, 0x02, 0xfd, 0x03, 0x04, 0x04, 0x04,
  0xfa, 0x02, 0xfe, 0xfc, 0x02, 0x05, 0xfd, 0x04, 0xff, 0xfe, 0xfd, 0x01,
  0x02, 0x03, 0x00, 0xfc, 0x02, 0xfe, 0x05, 0x04, 0xfc, 0xff, 0x00, 0x00,
  0xfb, 0xfe, 0x05, 0xfd, 0xfc, 0xff, 0x02, 0x02, 0x00, 0xfd, 0xfd, 0x01,
  0x01, 0xfe, 0xfb, 0xfb, 0xfe, 0x02, 0x00, 0xfc, 0xfe, 0xfd, 0x01, 0x05,
  0xfe, 0x02, 0xfc, 0x03, 0x03, 0xfb, 0x05, 0xfc, 0xfd, 0xfc, 0xfe, 0x00,
  0x01, 0x01, 0x02, 0x04, 0xff, 0xff, 0x04, 0xff, 0xfd, 0x03, 0x01, 0xfd,
  0xfb, 0x03, 0x05, 0x01, 0x01, 0xfc, 0xff, 0x04, 0x03, 0xfa, 0x04, 0xfb,
  0x02, 0x05, 0x02, 0x03, 0xff, 0xff, 0xfa, 0xfe, 0xff, 0xfb, 0xfc, 0x04,
  0xfd, 0x02, 0x03, 0xff, 0xfd, 0x03, 0x04, 0xfb, 0x05, 0xff, 0x00, 0x04,
  0xfd, 0xfa, 0x06, 0xfa, 0xfe, 0x00, 0x00, 0xfc, 0xfc, 0x05, 0xfd, 0x04,
  0x02, 0xff, 0x00, 0x01, 0x05, 0xfb, 0xfa, 0xff, 0xff, 0x03, 0xfd, 0xfb,
  0xfe, 0x04, 0xff, 0x01, 0x02, 0x00, 0xfd, 0x05, 0xfe, 0x01, 0xfe, 0x03,
  0xff, 0xfd, 0x04, 0x04, 0x01, 0xff, 0xfe, 0x04, 0x00, 0x01, 0x05, 0xfe,
  0x01, 0xfa, 0xfe, 0xfb, 0x04, 0xfd, 0x04, 0x00, 0xfc, 0xfa, 0x02, 0x00,
  0x00, 0xfe, 0xfa, 0xfa, 0x01, 0xfe, 0x01, 0xfa, 0x03, 0x03, 0x02, 0xfc,
  0x04, 0x02, 0x03, 0x03, 0x01, 0x02, 0x02, 0xfd, 0xff, 0xfc, 0x00, 0x00,
  0xfe, 0x04, 0xfc, 0xfc, 0x05, 0xff, 0x03, 0x00, 0x03, 0x01, 0xfe, 0x05,
  0x05, 0x05, 0xfc, 0x02, 0xfc, 0x01, 0x05, 0x00, 0xfb, 0x05, 0xff, 0x02,
  0x05, 0xfc, 0xfd, 0x00, 0xff, 0x02, 0x01, 0xfc, 0xfd, 0xfe, 0x00, 0xff,
  0xfa, 0x04, 0xff, 0x02, 0x00, 0xfe, 0xfc, 0xfe, 0x04, 0xfb, 0xfd, 0xfd,
  0x00, 0xfa, 0xfd, 0xfb, 0x00, 0x03, 0xfb, 0x00, 0xfb, 0x03, 0x04, 0x03,
  0x05, 0x05, 0xff, 0xff, 0xfa, 0x04, 0x05, 0x04, 0x04, 0xfb, 0x00, 0x01,
  0xfa, 0xfa, 0xfd, 0xfd, 0x00, 0xff, 0xfd, 0xfb, 0xfc, 0xff, 0xff, 0x01,
  0x01, 0xfc, 0x02, 0xfd, 0xfe, 0xfa, 0xfa, 0x02, 0xff, 0xff, 0xfb, 0x03,
  0xfb, 0x01, 0xff, 0x02, 0xfc, 0x04, 0x01, 0xfc, 0x00, 0x00, 0xff, 0xfd,
  0x01, 0xfb, 0x05, 0x03, 0x00, 0xfb, 0x06, 0x00, 0xfa, 0x03, 0x02, 0x04,
  0x05, 0x05, 0xfc, 0xfe, 0x05, 0xfd, 0xfb, 0xfb, 0x00, 0x00, 0xfb, 0xfa,
  0x00, 0xfb, 0x02, 0xfd, 0x05, 0x01, 0xfc, 0xfb, 0x03, 0x02, 0xff, 0x01,
  0xfe, 0xfc, 0xfb, 0x04, 0x01, 0x04, 0x03, 0x02, 0x03, 0xfe, 0x05, 0xfe,
  0x00, 0x05, 0x05, 0xfe, 0x03, 0xfe, 0xfc, 0x02, 0x00, 0xfc, 0xfc, 0xfc,
  0x02, 0xfc, 0x01, 0x05, 0x00, 0xfc, 0xfa, 0x04, 0xfb, 0x04, 0x01, 0xfd,
  0xfc, 0x02, 0x01, 0x00, 0xfd, 0xfb, 0xfc, 0x05, 0xff, 0x02, 0x03, 0xff,
  0xff, 0x05, 0x03, 0x04, 0x02, 0xfe, 0xfe, 0xfe, 0x02, 0x04, 0xfc, 0xff,
  0x04, 0x05, 0xfb, 0x03, 0x00, 0x05, 0xfc, 0x01, 0xfb, 0x01, 0x01, 0xff,
  0xfa, 0x00, 0x05, 0xfc, 0x01, 0x03, 0xfb, 0x02, 0xff, 0x00, 0xfb, 0xfb,
  0x04, 0xfa, 0x01, 0x03, 0x01, 0xfa, 0x00, 0x02, 0xfe, 0xfe, 0x03, 0xfe,
  0x04, 0xfd, 0xfa, 0xfc, 0xfc, 0x02, 0x03, 0x03, 0x02, 0xfe, 0x02, 0xfa,
  0x03, 0x02, 0xfd, 0x01, 0x03, 0x02, 0x04, 0x03, 0xff, 0x02, 0xfb, 0x00,
  0x02, 0xfb, 0xfc, 0xfc, 0x01, 0xfc, 0x05, 0x02, 0x02, 0xfa, 0xfe, 0xfe,
  0xff, 0x00, 0x03, 0xff, 0xfd, 0x03, 0xfd, 0xfe, 0x00, 0xfc, 0xff, 0xfb,
  0xff, 0xfd, 0xfa, 0xfe, 0xfc, 0x05, 0x03, 0x00, 0x00, 0xfd, 0x03, 0x01,
  0x02, 0x03, 0xfb, 0x01, 0xfb, 0xfb, 0xff, 0xfd, 0xff, 0x05, 0x01, 0xfb,
  0x04, 0xfc, 0xfe, 0xfe, 0x00, 0x05, 0xfa, 0x01, 0xfd, 0xfc, 0xfb, 0xfe,
  0xfb, 0x01, 0xfe, 0xfe, 0xfe, 0x00, 0x03, 0xfa, 0xff, 0x03, 0xfa, 0xfd,
  0xfd, 0x04, 0x00, 0xfe, 0xff, 0x03, 0x05, 0xfb, 0xfb, 0xfe, 0xfd, 0x02,
  0x03, 0xfe, 0x02, 0x02, 0xfb, 0xfc, 0x00, 0x04, 0x05, 0x00, 0xfb, 0xfd,
  0xfc, 0xff, 0xfb, 0x03, 0x00, 0xfb, 0xfb, 0xfe, 0x01, 0x05, 0x01, 0x01,
  0xfc, 0xfc, 0x04, 0x01, 0xfe, 0xfd, 0x02, 0xfc, 0xfb, 0xfe, 0x03, 0xfe,
  0xfa, 0x04, 0xfc, 0x01, 0x03, 0xff, 0xff, 0x01, 0x04, 0x00, 0x04, 0x03,
  0xfb, 0x05, 0x05, 0xfa, 0xfa, 0x04, 0xfb, 0xfb, 0xfd, 0x01, 0xfe, 0x03,
  0xfe, 0xfe, 0x00, 0x04, 0xff, 0xfa, 0xfe, 0x04, 0x00, 0x01, 0xfd, 0x03,
  0xff, 0xfc, 0xff, 0x04, 0xfc, 0x06, 0xfd, 0x01, 0x03, 0x01, 0x05, 0x04,
  0x01, 0xfa, 0x03, 0xfc, 0xfd, 0xfd, 0xfb, 0xff, 0xfc, 0xfa, 0x03, 0xfe,
  0x01, 0x04, 0xfe, 0xfe, 0x04, 0xff, 0xfa, 0x01, 0xfb, 0x03, 0xfc, 0x02,
  0xfb, 0x05, 0x03, 0xfb, 0x01, 0x04, 0x05, 0x01, 0xfa, 0x02, 0xff, 0xfa,
  0xff, 0x03, 0xfc, 0xfd, 0x01, 0xfe, 0x04, 0x03, 0xfd, 0x05, 0xfe, 0xfc,
  0x00, 0xff, 0xfe, 0x01, 0xfe, 0xff, 0xfe, 0xff, 0x03, 0x00, 0x05, 0x03,
  0x00, 0x03, 0xff, 0xfe, 0x03, 0x01, 0xfc, 0x02, 0x05, 0xfe, 0xfc, 0x02,
  0xfa, 0x04, 0xfc, 0x02, 0x05, 0xfc, 0xfb, 0xfc, 0x04, 0x04, 0xfa, 0x03,
  0x02, 0x03, 0xfa, 0xff, 0x03, 0x03, 0xfa, 0x02, 0x04, 0x01, 0x01, 0x00,
  0x02, 0x00, 0x01, 0xfe, 0x00, 0x04, 0xfe, 0x03, 0x02, 0x03, 0xff, 0x00,
  0x02, 0x00, 0xfd, 0x05, 0x03, 0xfc, 0xfe, 0xfb, 0x03, 0xfb, 0x00, 0xff,
  0x01, 0xfa, 0x03, 0x03, 0xff, 0xff, 0x00, 0x01, 0x02, 0xfe, 0xff, 0xff,
  0x02, 0xfc, 0x04, 0xfa, 0xfb, 0xfd, 0x01, 0x00, 0x01, 0xff, 0x04, 0x01,
  0x02, 0x02, 0xff, 0xfe, 0xfa, 0xff, 0x04, 0xfe, 0x05, 0x05, 0xfd, 0x04,
  0x04, 0xfc, 0x00, 0xfb, 0x00, 0xfa, 0x02, 0x06, 0xfa, 0xff, 0x01, 0x01,
  0xfb, 0x04, 0xfe, 0x04, 0xfd, 0xff, 0x04, 0xfe, 0x04, 0x05, 0x04, 0x03,
  0x01, 0xfe, 0xff, 0xff, 0xfd, 0xfe, 0xfb, 0xfc, 0xfe, 0xfe, 0x02, 0x01,
  0x02, 0xfd, 0x02, 0xfe, 0xfc, 0x05, 0xfd, 0xff, 0xfd, 0x01, 0xfa, 0xfd,
  0xfe, 0x04, 0xff, 0xfb, 0x00, 0x05, 0x03, 0x00, 0x00, 0x02, 0xfa, 0x02,
  0x02, 0xfb, 0x04, 0xfb, 0xfe, 0xfb, 0x00, 0x05, 0xfe, 0x04, 0xfc, 0xfb,
  0x01, 0xfb, 0xfc, 0xff, 0xff, 0xfe, 0xfa, 0x01, 0x06, 0x05, 0x02, 0xfd,
  0xfd, 0xff, 0x04, 0xfb, 0x02, 0xfa, 0x02, 0x03, 0x00, 0x05, 0xfd, 0x01,
  0x05, 0xfc, 0xfb, 0x05, 0x05, 0x03, 0xff, 0x05, 0x02, 0xff, 0xfa, 0xfe,
  0xfa, 0x05, 0xfe, 0xfb, 0x05, 0xfb, 0x01, 0xfa, 0xff, 0xfa, 0x03, 0x05,
  0xfc, 0xfe, 0x01, 0x04, 0x01, 0xff, 0xfc, 0x00, 0xfd, 0xfb, 0xfe, 0x01,
  0xfd, 0x00, 0x00, 0x03, 0x04, 0x03, 0x05, 0xfc, 0xff, 0xfd, 0x00, 0x04,
  0x03, 0x04, 0x03, 0x02, 0x05, 0x04, 0x05, 0xfb, 0xfb, 0x04, 0xfd, 0xfe,
  0x03, 0x01, 0x05, 0xfd, 0xfd, 0x04, 0xfb, 0xfd, 0x03, 0x01, 0x04, 0xfc,
  0xfc, 0xff, 0x02, 0x04, 0xfc, 0x00, 0x05, 0xfd, 0x03, 0x00, 0x04, 0x03,
  0xfc, 0xfd, 0xfb, 0x01, 0xfe, 0x01, 0x02, 0xfc, 0x03, 0x05, 0xff, 0xff,
  0x05, 0xfc, 0x05, 0x01, 0xfb, 0xfd, 0xfe, 0x03, 0xff, 0x03, 0x04, 0xff,
  0xff, 0xff, 0xfc, 0xfe, 0x02, 0xff, 0x03, 0x01, 0xfb, 0x01, 0xfe, 0xfd,
  0x04, 0xfb, 0x02, 0xfe, 0x01, 0x02, 0x02, 0x00, 0x05, 0xff, 0xfa, 0x00,
  0x00, 0xfe, 0xfc, 0xfe, 0xfe, 0xfe, 0xfb, 0xfa, 0x02, 0x00, 0xfd, 0xfe,
  0xfe, 0x03, 0xfd, 0xfa, 0x05, 0x03, 0xfb, 0x02, 0x03, 0xfd, 0xfd, 0x00,
  0xff, 0xfa, 0xfe, 0x01, 0xfa, 0x03, 0x05, 0x00, 0x05, 0xfe, 0xfa, 0x02,
  0xfe, 0xfb, 0x01, 0x00, 0x03, 0x01, 0x00, 0xfd, 0x01, 0x03, 0xfe, 0x06,
  0xfb, 0x02, 0x00, 0xfe, 0xfc, 0x01, 0x03, 0xfe, 0x03, 0xfb, 0x01, 0xfb,
  0xfe, 0x00, 0xfe, 0xfe, 0x00, 0x02, 0x01, 0xfc, 0xff, 0xfd, 0xfe, 0xfe,
  0x02, 0xfe, 0xff, 0x05, 0x01, 0xfa, 0xfc, 0xfc, 0xfd, 0xfa, 0x03, 0xfd,
  0xff, 0x05, 0xff, 0x00, 0x00, 0xff, 0xfb, 0x02, 0x00, 0xfb, 0xfc, 0xfc,
  0x04, 0x05, 0xff, 0xfb, 0x00, 0x01, 0x01, 0x01, 0x04, 0xfd, 0x05, 0x01,
  0x04, 0x02, 0xfb, 0x03, 0x05, 0xfb, 0xfa, 0xfb, 0x01, 0x01, 0xfa, 0x01,
  0xff, 0xff, 0x05, 0xff, 0xfe, 0x01, 0xff, 0x05, 0x03, 0xfd, 0x03, 0x02,
  0xfc, 0xfe, 0xfa, 0x01, 0xff, 0x00, 0xfe, 0x05, 0xfd, 0x05, 0x00, 0x01,
  0x05, 0x01, 0x01, 0x01, 0x01, 0xfa, 0xfc, 0xfd, 0x00, 0xfb, 0x01, 0x04,
  0x01, 0x01, 0xff, 0xfd, 0xff, 0x03, 0x04, 0xfe, 0xfd, 0xfb, 0x02, 0x00,
  0xfb, 0xfc, 0xfe, 0x04, 0xff, 0xfe, 0xfd, 0xfb, 0xfa, 0x02, 0x02, 0x04,
  0xff, 0xfe, 0xff, 0x02, 0x01, 0xff, 0x05, 0x04, 0xff, 0xff, 0xfc, 0xfc,
  0x05, 0x00, 0xfb, 0x02, 0x01, 0xfd, 0x06, 0xff, 0xfb, 0x01, 0x01, 0xfd,
  0xfe, 0x01, 0xfd, 0xfe, 0x00, 0xfb, 0x03, 0xff, 0xfe, 0xfc, 0xfe, 0x02,
  0xff, 0x00, 0x00, 0x05, 0xfa, 0xff, 0xfc, 0x05, 0x00, 0x00, 0xfd, 0x02,
  0xfe, 0xfd, 0x05, 0xfc, 0xfe, 0x02, 0x05, 0xfc, 0x00, 0x04, 0x01, 0xfe,
  0x02, 0x00, 0x01, 0xfe, 0xfa, 0x03, 0x05, 0x05, 0xfc, 0xfb, 0xfb, 0xff,
  0xfe, 0xfc, 0x01, 0x01, 0xfc, 0xfd, 0xfb, 0x04, 0xfd, 0x00, 0x00, 0x00,
  0xfe, 0x01, 0xff, 0xff, 0xfc, 0xfb, 0xff, 0x02, 0x01, 0xfe, 0xfd, 0xff,
  0xfd, 0xff, 0xfa, 0xfd, 0x04, 0x05, 0xfe, 0x05, 0x03, 0xfe, 0xfe, 0x04,
  0xfc, 0xfe, 0x04, 0xfd, 0x05, 0x04, 0x04, 0x05, 0x00, 0x05, 0x00, 0x01,
  0x04, 0x04, 0x03, 0xfc, 0x00, 0xfa, 0x01, 0x03, 0x02, 0xff, 0xfb, 0x04,
  0x02, 0x00, 0x03, 0xfc, 0x04, 0x05, 0xfb, 0x04, 0x03, 0xfb, 0xfd, 0x05,
  0xfc, 0xff, 0xfe, 0x02, 0x05, 0xfe, 0xfc, 0xfa, 0x01, 0x01, 0x00, 0xfa,
  0xfd, 0x04, 0x01, 0x00, 0x01, 0x00, 0xff, 0xfe, 0x04, 0xfe, 0xfe, 0xfa,
  0x01, 0xfa, 0x02, 0x04, 0x01, 0x01, 0x04, 0xfc, 0xfe, 0xfd, 0x04, 0x00,
  0x04, 0xfa, 0xfb, 0xfe, 0x04, 0xfe, 0x01, 0x02, 0x04, 0xfc, 0x03, 0x06,
  0xfe, 0xfe, 0xfb, 0xfa, 0xfc, 0x05, 0xfe, 0x01, 0xfa, 0x04, 0xfb, 0xfb,
  0x02, 0x02, 0x01, 0xfa, 0x04, 0x02, 0xfa, 0xfb, 0xfd, 0xff, 0xfc, 0xfb,
  0xfc, 0x04, 0x03, 0x01, 0xfa, 0x03, 0x03, 0x05, 0xff, 0x03, 0x01, 0x04,
  0x02, 0x01, 0xfb, 0xfa, 0x04, 0xfa, 0xff, 0x01, 0xfe, 0xfb, 0xfc, 0xfa,
  0xfe, 0x03, 0x04, 0x03, 0xfd, 0xfa, 0x05, 0x01, 0xfe, 0xfe, 0xfe, 0x05,
  0xfe, 0x03, 0xfc, 0xff, 0xfc, 0x02, 0x03, 0xfc, 0xfe, 0xfe, 0xfd, 0x02,
  0x04, 0x03, 0x01, 0xff, 0x01, 0x01, 0xfa, 0x01, 0x05, 0x02, 0x01, 0x00,
  0xfb, 0xfd, 0x03, 0xfb, 0xfd, 0xfb, 0xfd, 0xfc, 0x01, 0xfd, 0xfc, 0x01,
  0xfc, 0x05, 0x04, 0x03, 0xfe, 0x02, 0xff, 0x05, 0x04, 0x00, 0xfc, 0x01,
  0xfe, 0xfb, 0x04, 0xff, 0x03, 0xfb, 0xfb, 0xff, 0xfe, 0xfe, 0xfc, 0xfd,
  0x00, 0xfe, 0xfd, 0xfe, 0x03, 0xff, 0x02, 0xff, 0x05, 0xfb, 0xfd, 0xfa,
  0x01, 0xfe, 0x01, 0xfd, 0x04, 0x03, 0xfe, 0xfe, 0xfd, 0xfb, 0xfa, 0xfa,
  0x04, 0xfb, 0x00, 0x04, 0x00, 0x03, 0x02, 0x01, 0x04, 0x05, 0xfc, 0xfc,
  0xff, 0x05, 0x00, 0x03, 0xfe, 0x01, 0xfd, 0x01, 0x05, 0x00, 0xfd, 0x05,
  0x02, 0xfb, 0xfb, 0x00, 0x01, 0x01, 0xfa, 0x02, 0x05, 0x04, 0x00, 0xff,
  0x05, 0xfc, 0x00, 0xff, 0x02, 0xfc, 0x05, 0xfa, 0x00, 0x05, 0xfd, 0x01,
  0x00, 0x00, 0xfa, 0x05, 0xfb, 0x04, 0x05, 0xfe, 0xfd, 0xfa, 0xfa, 0x04,
  0xff, 0xfd, 0x02, 0x00, 0x02, 0xfd, 0x04, 0x01, 0x00, 0xfb, 0xfc, 0x04,
  0x01, 0x00, 0xfb, 0xfd, 0x00, 0xfb, 0x05, 0xfc, 0xfc, 0x05, 0x04, 0xfb,
  0x01, 0xfc, 0x00, 0x01, 0x02, 0xff, 0xfe, 0x03, 0xff, 0xfe, 0x02, 0xfc,
  0x01, 0x04, 0xff, 0xfe, 0xfe, 0xff, 0x01, 0x03, 0xff, 0x00, 0xfc, 0x02,
  0xfc, 0x04, 0x01, 0x00, 0xfb, 0x06, 0x01, 0xfb, 0x01, 0x02, 0xfd, 0xfb,
  0xff, 0xfc, 0x04, 0x04, 0xfc, 0xfb, 0xff, 0xfc, 0x00, 0xff, 0x05, 0x03,
  0x04, 0x00, 0x05, 0xfe, 0x05, 0x01, 0x00, 0x01, 0x04, 0xfb, 0xfc, 0x05,
  0x05, 0x03, 0xff, 0x02, 0x00, 0xff, 0x03, 0xfa, 0x02, 0xfa, 0x02, 0x00,
  0x01, 0x00, 0x04, 0x00, 0xfd, 0x04, 0x00, 0x01, 0x05, 0xfc, 0xfe, 0xfc,
  0x03, 0xfa, 0x01, 0x04, 0xfb, 0xff, 0x02, 0xfa, 0x04, 0x00, 0x02, 0xfd,
  0x00, 0xfc, 0xfc, 0xfd, 0xfa, 0x00, 0xfe, 0x05, 0x00, 0xfd, 0x03, 0x04,
  0x02, 0x01, 0x05, 0x04, 0x03, 0xfc, 0xfb, 0xfb, 0x00, 0xfd, 0x02, 0xfe,
  0x02, 0xff, 0xfc, 0x03, 0xfc, 0x04, 0xfe, 0x00, 0x05, 0xfa, 0xff, 0x01,
  0x00, 0xfb, 0x04, 0x01, 0xfd, 0x05, 0xfa, 0xfe, 0x05, 0x00, 0xfb, 0xfb,
  0x03, 0x00, 0xfc, 0xfc, 0x01, 0xfa, 0x01, 0xfb, 0x01, 0xfa, 0xfa, 0xfe,
  0x02, 0xfa, 0x03, 0x00, 0xfb, 0x05, 0x03, 0x04, 0xff, 0x02, 0x04, 0x04,
  0x00, 0x00, 0xfb, 0xfa, 0x05, 0xff, 0x04, 0xff, 0x03, 0xfa, 0x01, 0x02,
  0x05, 0xfa, 0x03, 0x00, 0x01, 0x03, 0xfc, 0x01, 0x02, 0x04, 0xfa, 0x04,
  0x01, 0x00, 0x00, 0x03, 0x01, 0xfd, 0xfd, 0xfb, 0x00, 0x03, 0xfb, 0x04,
  0x03, 0xfb, 0x04, 0xff, 0x01, 0xfc, 0x05, 0x04, 0x01, 0xfe, 0x03, 0x04,
  0xfb, 0x02, 0xfc, 0xfc, 0x00, 0x00, 0xfb, 0x05, 0xff, 0xfc, 0xfc, 0xfd,
  0x01, 0xfb, 0xfb, 0xfb, 0xff, 0x03, 0x01, 0x04, 0x04, 0x03, 0xff, 0x01,
  0x02, 0x00, 0x02, 0x00, 0x04, 0x02, 0xfb, 0x03, 0x03, 0x04, 0x02, 0x00,
  0x03, 0x04, 0x03, 0x02, 0xfd, 0xfb, 0xff, 0xfc, 0xfb, 0x03, 0x01, 0xff,
  0xfd, 0xff, 0x02, 0xfa, 0x00, 0x04, 0x00, 0x00, 0xfc, 0x04, 0xfc, 0x03,
  0xfb, 0xfd, 0x04, 0xfd, 0xfc, 0xfd, 0xfd, 0xfb, 0x00, 0xfa, 0xfe, 0x00,
  0xfe, 0x05, 0x03, 0xfc, 0x03, 0xfd, 0x04, 0x05, 0x00, 0xfd, 0xfe, 0xfa,
  0xfd, 0xfe, 0xfc, 0x02, 0x02, 0x04, 0xfe, 0xfe, 0x02, 0x04, 0xfb, 0x01,
  0x02, 0x03, 0x02, 0xfc, 0xfd, 0xfe, 0xfb, 0xfc, 0xfa, 0x00, 0x01, 0xfd,
  0x03, 0x03, 0x04, 0x04, 0x05, 0xfb, 0x00, 0x04, 0xfe, 0xfd, 0xfa, 0xfa,
  0x02, 0x00, 0xff, 0xff, 0x05, 0x02, 0xff, 0x01, 0x04, 0xfb, 0x01, 0x04,
  0xfe, 0x00, 0x03, 0xff, 0x01, 0xff, 0xfc, 0x03, 0xff, 0xfc, 0x02, 0xfb,
  0xfe, 0x01, 0xfe, 0x00, 0xfd, 0x01, 0xfe, 0x01, 0xff, 0xfe, 0xfb, 0x04,
  0x05, 0xfe, 0x02, 0xfd, 0xfc, 0xfe, 0xfb, 0xfa, 0x01, 0xfb, 0x00, 0x00,
  0xfe, 0x05, 0xff, 0xfd, 0x05, 0x05, 0xfc, 0xfa, 0xfb, 0x03, 0x04, 0x01,
  0xfe, 0xfd, 0x05, 0x00, 0xfd, 0x05, 0xff, 0xfe, 0x00, 0x03, 0xfa, 0xff,
  0xfc, 0x05, 0x03, 0xff, 0xfc, 0xfd, 0x00, 0xfa, 0x01, 0xfe, 0x00, 0xfa,
  0x01, 0xfc, 0xfe, 0xfc, 0xfa, 0x00, 0x01, 0xfe, 0xfb, 0xfc, 0xfb, 0x04,
  0xfc, 0xff, 0x00, 0xfc, 0xff, 0xff, 0xfc, 0x00, 0xfc, 0x03, 0x04, 0xfe,
  0xfd, 0xfe, 0xff, 0x04, 0x01, 0x02, 0x01, 0x01, 0xfd, 0xfe, 0x03, 0xff,
  0x04, 0xfe, 0xfa, 0x02, 0xfb, 0xfd, 0xfe, 0xfa, 0xfc, 0xfe, 0xfa, 0x00,
  0xfd, 0x01, 0x01, 0xfc, 0xfe, 0x03, 0xfa, 0xfb, 0x00, 0xfd, 0x04, 0x01,
  0xfd, 0xff, 0xfa, 0x03, 0xfe, 0x02, 0xfc, 0xfc, 0x03, 0x03, 0xff, 0xfc,
  0xfd, 0x04, 0xfc, 0xff, 0x02, 0xfb, 0xfc, 0x02, 0x05, 0xfc, 0xfb, 0xfa,
  0x03, 0x01, 0x01, 0x02, 0xfb, 0xfb, 0x00, 0xff, 0x00, 0xfa, 0x00, 0x00,
  0x00, 0xff, 0x05, 0xfb, 0x01, 0x03, 0x03, 0x00, 0xfc, 0x03, 0xfd, 0x04,
  0x04, 0x01, 0xfc, 0xfc, 0xfc, 0x02, 0xff, 0x02, 0xfe, 0xfd, 0x04, 0x04,
  0xfa, 0x04, 0xfb, 0xfb, 0x02, 0xff, 0x05, 0xfd, 0xfb, 0xfc, 0x01, 0xfb,
  0x04, 0xfd, 0x04, 0xfb, 0xfe, 0xfd, 0xfc, 0x05, 0xfc, 0xff, 0x04, 0x03,
  0xfe, 0x04, 0x00, 0xfc, 0xfc, 0x01, 0x01, 0x03, 0x02, 0xfa, 0xfa, 0xfb,
  0xff, 0x00, 0x01, 0x01, 0x04, 0xff, 0xfd, 0xfe, 0xfe, 0x02, 0x00, 0x03,
  0xfa, 0x00, 0xfa, 0x02, 0xfa, 0x00, 0xfc, 0xff, 0x01, 0x02, 0x02, 0x01,
  0xfe, 0xfe, 0x01, 0xff, 0xfa, 0x05, 0xfe, 0x05, 0x03, 0x02, 0xfc, 0xfa,
  0x00, 0x00, 0x03, 0x00, 0xfe, 0xfd, 0x01, 0x05, 0xfe, 0x01, 0x02, 0xfa,
  0xfa, 0x01, 0x05, 0x05, 0x01, 0xfd, 0xfe, 0x05, 0xfa, 0xfa, 0x00, 0xfe,
  0x04, 0xfd, 0x00, 0xfd, 0x05, 0xfc, 0x01, 0x05, 0xfa, 0x04, 0xfd, 0x05,
  0x04, 0xff, 0x02, 0xff, 0xfc, 0x02, 0x02, 0x04, 0xfe, 0x02, 0xfd, 0xfb,
  0x00, 0xfe, 0x03, 0xfc, 0x01, 0xfe, 0x00, 0x03, 0x04, 0x04, 0x01, 0xfb,
  0x02, 0xfa, 0x02, 0xfd, 0xfd, 0x00, 0xfc, 0xfd, 0xfb, 0xfa, 0xfd, 0x02,
  0xfd, 0x01, 0x02, 0xfc, 0xfd, 0xfe, 0x04, 0x01, 0xfb, 0x01, 0x00, 0x03,
  0x03, 0xfc, 0xfb, 0xfb, 0xfb, 0x02, 0xfa, 0x05, 0xfc, 0x02, 0xfc, 0xfb,
  0xfe, 0x04, 0xfa, 0xfc, 0x00, 0x00, 0x02, 0x03, 0x02, 0x05, 0x02, 0x03,
  0x05, 0x03, 0xfb, 0xfa, 0x04, 0x05, 0xfc, 0xfe, 0xfd, 0x04, 0xff, 0xfd,
  0xfe, 0xff, 0x01, 0x01, 0x00, 0x02, 0xfe, 0x01, 0xff, 0x02, 0x04, 0xfa,
  0x04, 0x04, 0x05, 0xfe, 0xfb, 0xff, 0xfa, 0x00, 0xfa, 0x03, 0x02, 0x05,
  0xfd, 0x00, 0x02, 0xfc, 0xfd, 0xfd, 0xfd, 0xfa, 0xff, 0x01, 0xfc, 0x00,
  0xfd, 0xfb, 0xfa, 0xfe, 0x00, 0xff, 0x01, 0x01, 0xfa, 0xfb, 0xfb, 0x02,
  0x03, 0xfb, 0xfe, 0xfa, 0x05, 0x00, 0xfe, 0xfb, 0x04, 0x04, 0xfd, 0xfc,
  0x04, 0xfe, 0x01, 0xff, 0x02, 0x02, 0xfb, 0x01, 0xfa, 0xfb, 0xfe, 0x00,
  0x00, 0x01, 0xfb, 0xfa, 0xfc, 0xfe, 0x05, 0x05, 0x01, 0x02, 0xfd, 0xfa,
  0xfe, 0xfd, 0x04, 0x05, 0xfd, 0x03, 0x00, 0x02, 0xfd, 0xfa, 0x04, 0x03,
  0x00, 0xfe, 0x02, 0x03, 0x05, 0x01, 0x03, 0xff, 0x00, 0x05, 0xfe, 0x00,
  0x00, 0xfe, 0x02, 0x03, 0x00, 0xfe, 0xfb, 0x05, 0xfd, 0xfa, 0x02, 0xff,
  0xfe, 0xfa, 0x04, 0xfe, 0xfb, 0x02, 0x00, 0xfb, 0xfc, 0x05, 0x04, 0xfb,
  0xfe, 0xfe, 0x02, 0x02, 0xfe, 0x01, 0xfb, 0xfa, 0x02, 0xfc, 0xfd, 0xfe,
  0x02, 0xfd, 0x05, 0x05, 0xfc, 0x04, 0xfd, 0x03, 0x03, 0x02, 0x03, 0x01,
  0x01, 0x04, 0xff, 0x01, 0x01, 0xfd, 0xfc, 0x05, 0xfd, 0x03, 0x00, 0x05,
  0x01, 0xfd, 0xfb, 0xfb, 0x01, 0xfd, 0xfc, 0x03, 0x01, 0x04, 0xfe, 0xff,
  0xfc, 0x03, 0x01, 0xfe, 0x02, 0xfd, 0x03, 0xfd, 0xfe, 0x06, 0x05, 0x03,
  0xfa, 0x05, 0x04, 0x05, 0x02, 0xff, 0xff, 0x02, 0xfe, 0x01, 0xfb, 0x03,
  0xfb, 0x02, 0xfe, 0x05, 0x01, 0xff, 0xfc, 0xfb, 0x04, 0x04, 0x00, 0xfc,
  0xff, 0xfa, 0x05, 0x04, 0xfc, 0xfd, 0x04, 0xfd, 0x02, 0x03, 0x00, 0xfe,
  0x02, 0x02, 0x00, 0x02, 0x03, 0xfa, 0xfe, 0xfe, 0xfb, 0x05, 0xfa, 0x04,
  0x01, 0x02, 0xfa, 0x02, 0xfc, 0xfd, 0xfa, 0x02, 0xfc, 0xfc, 0xfc, 0x04,
  0x01, 0xff, 0xfe, 0xfa, 0xff, 0xff, 0xff, 0x01, 0x05, 0x00, 0xfb, 0x04,
  0x00, 0xfb, 0x05, 0xfd, 0x04, 0xff, 0xff, 0x04, 0xff, 0xfa, 0x02, 0xfd,
  0x00, 0x00, 0x01, 0xfe, 0xfe, 0xfb, 0x03, 0xff, 0x02, 0xfe, 0x01, 0x01,
  0xfe, 0x01, 0x01, 0xfd, 0x01, 0xff, 0x02, 0x00, 0xfd, 0x05, 0xfd, 0x03,
  0xff, 0xfe, 0xff, 0x02, 0xfd, 0x02, 0x05, 0xfd, 0xfc, 0x02, 0xff, 0x01,
  0x03, 0x01, 0xfb, 0xfc, 0xfd, 0xfd, 0x02, 0x04, 0xfe, 0xfe, 0xfd, 0xfe,
  0xfa, 0x03, 0xfb, 0xfc, 0x02, 0xfc, 0x03, 0x04, 0xfd, 0xfb, 0xfc, 0xff,
  0x02, 0x02, 0x04, 0x00, 0xfd, 0x02, 0xfb, 0xfd, 0xfb, 0x00, 0x04, 0x02,
  0x04, 0xfa, 0x01, 0xfe, 0x03, 0xfe, 0xfe, 0xfb, 0xfd, 0xfb, 0x04, 0xff,
  0x03, 0xff, 0x05, 0xfd, 0x05, 0xff, 0x04, 0x03, 0x02, 0xfc, 0x00, 0xfa,
  0xfe, 0x03, 0x01, 0xfc, 0x00, 0xfe, 0xff, 0x02, 0x02, 0x03, 0x02, 0xfa,
  0x00, 0x01, 0x05, 0xfd, 0x01, 0xfb, 0x06, 0xfa, 0xfb, 0x00, 0xfe, 0xfa,
  0x05, 0x02, 0xfd, 0x02, 0xfc, 0x00, 0xfe, 0xfb, 0x01, 0x05, 0xfd, 0x03,
  0x00, 0xfa, 0x06, 0x04, 0x06, 0x05, 0xfe, 0xfc, 0x06, 0x01, 0xfc, 0xfa,
  0x01, 0xff, 0xff, 0xfb, 0x00, 0x03, 0x03, 0x01, 0x05, 0xff, 0x02, 0xfd,
  0x00, 0xfb, 0xfe, 0x04, 0xff, 0xfe, 0xff, 0xff, 0xff, 0xfd, 0xfc, 0xfa,
  0xfc, 0xfd, 0x01, 0xff, 0x01, 0xff, 0x01, 0x04, 0x01, 0xff, 0x00, 0xfb,
  0x05, 0x03, 0xfc, 0x02, 0x01, 0xfe, 0x04, 0x02, 0xfc, 0x00, 0xfe, 0xff,
  0xff, 0x01, 0x00, 0xfd, 0xff, 0x00, 0x00, 0xfe, 0x00, 0x04, 0xff, 0x05,
  0xfa, 0x03, 0x00, 0xfa, 0x04, 0x00, 0xfb, 0xff, 0xfe, 0x05, 0x00, 0x05,
  0x05, 0xfe, 0x02, 0x04, 0xfb, 0x03, 0xfc, 0xfd, 0xfa, 0x01, 0x01, 0x02,
  0x04, 0xfe, 0xff, 0xff, 0x02, 0x00, 0xfa, 0x02, 0xfe, 0x00, 0x04, 0x05,
  0xfe, 0x02, 0x03, 0x01, 0xfd, 0x02, 0xfd, 0xfa, 0x02, 0xfb, 0xfb, 0xfd,
  0xfe, 0x01, 0xff, 0xff, 0xfc, 0xfc, 0xff, 0x02, 0xff, 0xfa, 0xfe, 0x03,
  0x04, 0xfb, 0x00, 0xff, 0x03, 0xfe, 0xff, 0x06, 0xfa, 0x02, 0x05, 0xfe,
  0xfc, 0x02, 0xfc, 0x04, 0xfc, 0xfd, 0x00, 0x03, 0xfc, 0xfd, 0xfc, 0xfb,
  0xfc, 0x02, 0xfc, 0xff, 0xfb, 0xff, 0x01, 0x01, 0xfc, 0xff, 0xfd, 0xfa,
  0x03, 0x05, 0x03, 0xfd, 0xfd, 0xfe, 0xfd, 0x00, 0x02, 0xfa, 0xfc, 0x00,
  0xff, 0xfd, 0x02, 0xfb, 0xff, 0xfb, 0xfd, 0xfd, 0xfa, 0xfe, 0x04, 0xfd,
  0xfb, 0xff, 0xff, 0xff, 0x03, 0x00, 0xfc, 0xfe, 0xfd, 0xfc, 0x04, 0x03,
  0x05, 0xfb, 0xfa, 0x03, 0x05, 0xfe, 0xfd, 0xfd, 0x04, 0x04, 0x05, 0x00,
  0xfe, 0x05, 0xfa, 0x06, 0xfb, 0xfc, 0xfc, 0x01, 0x03, 0x04, 0xfa, 0x00,
  0xfb, 0x03, 0xfe, 0xfa, 0xfd, 0x01, 0x05, 0xfc, 0xfc, 0xfa, 0x00, 0x01,
  0xfe, 0x04, 0x01, 0xff, 0x04, 0x04, 0x01, 0x01, 0xfc, 0x03, 0xfc, 0x02,
  0x02, 0x03, 0x03, 0xfd, 0x04, 0xfb, 0x02, 0x03, 0xff, 0xfd, 0x00, 0xfb,
  0xfe, 0xfb, 0xfb, 0xfb, 0xfa, 0xfb, 0xfb, 0xfa, 0x00, 0xfc, 0xfb, 0xfc,
  0x00, 0xfc, 0xfb, 0xfa, 0x03, 0xff, 0x02, 0x01, 0x02, 0x01, 0x02, 0xfb,
  0x02, 0x02, 0x00, 0xfd, 0xfc, 0x05, 0xfc, 0xfd, 0xfc, 0xfa, 0x01, 0xfd,
  0xfa, 0xfa, 0x03, 0x02, 0xfd, 0xfd, 0xfc, 0x02, 0x02, 0xfb, 0x03, 0x01,
  0xfe, 0x02, 0x04, 0x05, 0x05, 0x01, 0xfd, 0xfd, 0x04, 0x04, 0x00, 0xfb,
  0xfd, 0xfa, 0x02, 0xfe, 0x05, 0xfa, 0x03, 0xfd, 0xfe, 0x01, 0x01, 0xff,
  0x00, 0x03, 0xfc, 0x00, 0x03, 0xfc, 0x03, 0x03, 0x00, 0x00, 0xff, 0x00,
  0x05, 0xfe, 0xff, 0xfd, 0x05, 0x03, 0xff, 0x04, 0x03, 0x03, 0xff, 0xfd,
  0x04, 0xfb, 0xfd, 0xfd, 0xfa, 0xff, 0xfa, 0x05, 0x00, 0xff, 0xfa, 0x04,
  0xfd, 0xff, 0x04, 0xff, 0x05, 0xfa, 0xfb, 0xfd, 0x04, 0xfe, 0x01, 0x01,
  0xfb, 0xff, 0x04, 0xfe, 0x00, 0xfe, 0xfd, 0xfb, 0x02, 0x01, 0xfb, 0xff,
  0x03, 0x00, 0xfa, 0x04, 0xfb, 0xfc, 0x04, 0x04, 0xfe, 0xfd, 0x05, 0xfb,
  0xfd, 0xfd, 0x03, 0x03, 0xfb, 0x04, 0x04, 0x00, 0x03, 0x01, 0xff, 0x02,
  0xfe, 0xfa, 0xfb, 0xfb, 0x01, 0x01, 0xfe, 0x00, 0xfc, 0x05, 0x00, 0xff,
  0x01, 0xfb, 0xfe, 0xff, 0xfc, 0xfa, 0xfb, 0xfc, 0x04, 0x04, 0xfe, 0xfc,
  0xfa, 0xff, 0x05, 0xfe, 0x00, 0x04, 0xfd, 0x05, 0x01, 0xfb, 0x03, 0x06,
  0xfd, 0xfe, 0x04, 0x03, 0xfb, 0xfe, 0x00, 0xff, 0xfa, 0x01, 0x03, 0x01,
  0x03, 0x02, 0x01, 0x02, 0x05, 0x03, 0x00, 0xfb, 0x05, 0xfb, 0xfd, 0x04,
  0x00, 0x05, 0x01, 0x02, 0x00, 0xfc, 0xfb, 0xfc, 0xfb, 0xfc, 0xff, 0xff,
  0x03, 0xfa, 0x01, 0xfc, 0xff, 0xfd, 0xfe, 0xfd, 0xfd, 0x05, 0x05, 0x04,
  0x04, 0x06, 0x03, 0xfe, 0x01, 0xfb, 0x00, 0xfe, 0xfd, 0xfd, 0xfd, 0xfa,
  0x03, 0x04, 0x01, 0xff, 0x03, 0x01, 0xff, 0x04, 0x04, 0x01, 0x02, 0x02,
  0x02, 0x02, 0xfb, 0xfd, 0x06, 0xfb, 0xff, 0xff, 0x05, 0xff, 0xff, 0x04,
  0xfd, 0xff, 0xfd, 0x03, 0xfc, 0xfb, 0xff, 0x03, 0x01, 0xfe, 0x01, 0x00,
  0x05, 0xff, 0x02, 0x01, 0x03, 0x03, 0xfa, 0xfc, 0xfa, 0xfd, 0xfa, 0x01,
  0x04, 0x03, 0xfb, 0xfa, 0xfa, 0xfc, 0x00, 0xff, 0xfb, 0xfc, 0x03, 0xfb,
  0xfb, 0xfa, 0x03, 0x04, 0x01, 0xff, 0x00, 0xff, 0xfb, 0xfb, 0xfc, 0xfb,
  0xfc, 0x02, 0x02, 0xfc, 0xfd, 0x03, 0x04, 0x03, 0x01, 0xff, 0xfe, 0xfe,
  0x04, 0xfd, 0xfb, 0x04, 0xfd, 0xfc, 0x03, 0xff, 0x04, 0x04, 0xfb, 0x04,
  0xff, 0xfe, 0xfb, 0x01, 0x03, 0xfc, 0x04, 0x02, 0x01, 0xfb, 0x05, 0x02,
  0x04, 0xfe, 0x02, 0x03, 0xfb, 0xfe, 0x01, 0x02, 0xfb, 0x00, 0x04, 0x00,
  0xff, 0x05, 0x01, 0xfd, 0xfa, 0xfe, 0x04, 0xff, 0x05, 0xff, 0xfc, 0x01,
  0xfc, 0x05, 0xfa, 0xfe, 0x01, 0x01, 0xfc, 0x00, 0x02, 0xff, 0xfd, 0x03,
  0xfc, 0x05, 0x01, 0xfc, 0xfb, 0xff, 0xfa, 0xff, 0x03, 0x03, 0xff, 0xff,
  0xfe, 0x03, 0x00, 0xfe, 0x03, 0xfd, 0xfe, 0xfd, 0x00, 0x01, 0xfc, 0x03,
  0xfb, 0xfa, 0x03, 0xfb, 0xfc, 0x03, 0x02, 0x00, 0x05, 0xff, 0x00, 0xfe,
  0xfb, 0x04, 0xfb, 0x00, 0xfe, 0xfa, 0xfb, 0x03, 0x00, 0x04, 0x04, 0xff,
  0x05, 0x04, 0x00, 0xfb, 0xff, 0xfb, 0xfb, 0xfb, 0x02, 0x02, 0x01, 0x02,
  0x01, 0xff, 0xfe, 0xfe, 0x05, 0xfe, 0xfe, 0xfc, 0x01, 0xfe, 0xff, 0xfb,
  0x02, 0x04, 0x03, 0xfd, 0x02, 0x04, 0xfe, 0x00, 0xfd, 0x02, 0xfd, 0x02,
  0x00, 0x04, 0xfd, 0x02, 0x04, 0x03, 0xfe, 0xfb, 0x00, 0x03, 0xfc, 0x02,
  0xfb, 0xfc, 0x04, 0x00, 0x03, 0xff, 0x02, 0x00, 0x00, 0xfd, 0xfc, 0x04,
  0xff, 0xfb, 0x01, 0x05, 0x04, 0xfb, 0x05, 0x04, 0xfb, 0x03, 0x05, 0x05,
  0xff, 0xfa, 0xfe, 0x04, 0xff, 0x01, 0xff, 0x02, 0xfc, 0x02, 0xfe, 0x01,
  0xfa, 0x04, 0x04, 0x05, 0x03, 0x01, 0xfc, 0xfd, 0xfe, 0x00, 0xfe, 0x04,
  0x05, 0xff, 0x05, 0xfc, 0xfb, 0x00, 0x05, 0xfe, 0xfc, 0xfa, 0x03, 0xff,
  0x04, 0xfa, 0xfb, 0xff, 0xfb, 0x03, 0x01, 0x02, 0x02, 0x05, 0x05, 0x04,
  0x05, 0xfd, 0x01, 0xfe, 0x03, 0x04, 0xfe, 0xfb, 0x03, 0xfb, 0xfa, 0xfe,
  0xfb, 0xff, 0xfb, 0x00, 0x03, 0x02, 0x02, 0x00, 0xfd, 0x03, 0x01, 0x02,
  0x05, 0xfa, 0xfe, 0x00, 0x00, 0xff, 0xfc, 0xfc, 0xff, 0xfc, 0x04, 0x03,
  0xfb, 0xfe, 0x00, 0xfd, 0x00, 0x03, 0xfa, 0x03, 0xfc, 0x04, 0xfd, 0xfc,
  0x00, 0xff, 0xfb, 0x00, 0xfc, 0xfb, 0xff, 0x04, 0xfe, 0x05, 0xfe, 0x04,
  0x05, 0x05, 0x01, 0x04, 0xfd, 0x05, 0x00, 0x00, 0xff, 0xfb, 0x01, 0x02,
  0x05, 0xfa, 0x02, 0x04, 0x01, 0x05, 0x03, 0xff, 0xfa, 0xfc, 0x04, 0x00,
  0x04, 0x01, 0xfc, 0xfc, 0x05, 0x04, 0xfa, 0xff, 0xfd, 0xfb, 0xfe, 0x04,
  0x01, 0xfd, 0xfb, 0x04, 0xff, 0xfb, 0x03, 0x03, 0xfb, 0xfa, 0xfa, 0xfe,
  0xfa, 0xfd, 0xfa, 0xfd, 0x03, 0xfb, 0x05, 0x05, 0xff, 0x01, 0x04, 0xff,
  0x01, 0x05, 0xfc, 0xfc, 0xfd, 0x01, 0x01, 0xff, 0xfe, 0x03, 0x04, 0xff,
  0x00, 0xff, 0xff, 0xfa, 0xff, 0x03, 0xfb, 0xfb, 0xff, 0xfb, 0x04, 0x04,
  0xfd, 0xfa, 0x00, 0xfe, 0x00, 0xfd, 0x01, 0x03, 0x04, 0xfc, 0xfb, 0x04,
  0xfb, 0x01, 0x00, 0xfa, 0xfb, 0x01, 0xfb, 0xfb, 0x01, 0xfc, 0x00, 0x04,
  0xfa, 0xfb, 0xfb, 0x00, 0xfe, 0x04, 0xfd, 0x01, 0xfd, 0xfd, 0x01, 0xfb,
  0x06, 0x05, 0x05, 0x02, 0xff, 0x03, 0x03, 0x01, 0x03, 0x00, 0x05, 0x02,
  0xfa, 0xfb, 0x03, 0x05, 0x04, 0x02, 0x00, 0x00, 0xff, 0xff, 0xfa, 0xfd,
  0xfe, 0xfd, 0x02, 0x01, 0x00, 0xfc, 0x04, 0xfc, 0x00, 0xfb, 0xfa, 0x00,
  0x02, 0x00, 0x03, 0x02, 0xff, 0xfb, 0x01, 0x01, 0x05, 0xfb, 0xfd, 0x03,
  0x01, 0x03, 0x03, 0xfe, 0x03, 0x02, 0xfc, 0x00, 0xfa, 0x03, 0x03, 0xfb,
  0xfc, 0xfe, 0x00, 0x05, 0xff, 0x02, 0x00, 0xfe, 0x05, 0xfe, 0x00, 0xfe,
  0x01, 0x00, 0xfb, 0xff, 0xfb, 0xfd, 0x03, 0xfe, 0xfb, 0xff, 0xfc, 0x02,
  0xfa, 0x04, 0xfc, 0x02, 0xff, 0x03, 0xfa, 0x02, 0x00, 0xfb, 0xff, 0x02,
  0x04, 0x02, 0x00, 0x02, 0xfe, 0x03, 0x05, 0x01, 0x02, 0x01, 0xfb, 0x00,
  0x02, 0x00, 0x02, 0x03, 0x00, 0xfd, 0xfc, 0x02, 0xfc, 0x03, 0xff, 0x01,
  0xff, 0xfd, 0xfa, 0x00, 0x00, 0x05, 0xff, 0xfa, 0xfd, 0x02, 0x00, 0xfb,
  0x01, 0xfd, 0x02, 0xfa, 0x03, 0xfe, 0xfd, 0xfe, 0xff, 0x02, 0xfb, 0xfc,
  0x00, 0x03, 0x01, 0x06, 0x00, 0xff, 0xfc, 0xfe, 0x03, 0xfb, 0xfc, 0x05,
  0x01, 0x00, 0x03, 0xfb, 0xfe, 0x01, 0xfb, 0xfa, 0x02, 0x01, 0x05, 0x00,
  0x05, 0xfe, 0x02, 0x05, 0xfa, 0xff, 0x03, 0x01, 0x02, 0xfd, 0x01, 0x03,
  0xff, 0x05, 0xfe, 0xfe, 0x01, 0x02, 0x03, 0xfc, 0xfc, 0xfc, 0xfd, 0x03,
  0x00, 0xfc, 0xfb, 0x00, 0x00, 0x00, 0x01, 0xfe, 0x02, 0x00, 0xfa, 0x04,
  0x00, 0x00, 0xfa, 0xfb, 0x04, 0xfd, 0xfc, 0xfe, 0x04, 0x02, 0xfd, 0x00,
  0x04, 0x01, 0x02, 0x01, 0xfa, 0xfb, 0x05, 0xfd, 0xfe, 0xfe, 0x00, 0x01,
  0x02, 0xfa, 0xfe, 0xfd, 0x01, 0xfe, 0x00, 0xff, 0xff, 0x02, 0x02, 0x05,
  0xff, 0x03, 0xfe, 0xfa, 0x02, 0xfc, 0xfe, 0x06, 0x03, 0x06, 0xfd, 0xfc,
  0x00, 0xfa, 0xfb, 0x01, 0xfd, 0xfa, 0x04, 0x05, 0x05, 0x03, 0xfd, 0x04,
  0xfb, 0xfc, 0x00, 0x05, 0xff, 0xfe, 0xff, 0xfe, 0x02, 0xff, 0xfd, 0xff,
  0x03, 0xfe, 0x03, 0x02, 0xfa, 0xfc, 0x05, 0x02, 0xfa, 0x04, 0xfd, 0xfa,
  0x03, 0xff, 0xfc, 0xfb, 0x03, 0x01, 0xfa, 0xfc, 0x05, 0xfe, 0xff, 0xfe,
  0xfc, 0xff, 0x03, 0x02, 0x00, 0xfa, 0x01, 0xfb, 0xff, 0x02, 0xfc, 0xff,
  0xfa, 0x01, 0x00, 0xfc, 0xfd, 0x05, 0xfa, 0x00, 0x03, 0xfd, 0x05, 0xfc,
  0x01, 0x04, 0xfb, 0xfc, 0xfb, 0xff, 0xfd, 0x00, 0xfb, 0x02, 0x00, 0xfe,
  0xff, 0x05, 0xff, 0xfe, 0x04, 0x06, 0x01, 0xfd, 0x05, 0xfe, 0x05, 0xfc,
  0xff, 0xff, 0x05, 0x01, 0x04, 0x02, 0xfb, 0x00, 0xff, 0xfc, 0x01, 0x00,
  0xfc, 0xfe, 0x05, 0x02, 0x03, 0x02, 0x02, 0xff, 0x03, 0x02, 0xff, 0xfd,
  0x00, 0xfe, 0x00, 0x01, 0xfe, 0xfd, 0x00, 0x02, 0x04, 0x01, 0x03, 0xfa,
  0xfd, 0xff, 0xfb, 0x00, 0xfa, 0x03, 0x00, 0x02, 0x00, 0x03, 0x00, 0x05,
  0x00, 0xff, 0xfe, 0xff, 0xfb, 0x03, 0x02, 0x05, 0xfd, 0x05, 0xfe, 0x02,
  0xfe, 0x00, 0xfd, 0x00, 0xfb, 0x04, 0xff, 0x00, 0xff, 0x03, 0xfd, 0x05,
  0x02, 0xfd, 0xfc, 0x05, 0xfc, 0x03, 0x05, 0x03, 0x01, 0x02, 0xfa, 0xfb,
  0xfe, 0x01, 0xfa, 0xfd, 0xfa, 0x00, 0x05, 0x02, 0x05, 0xfb, 0xff, 0x00,
  0xfb, 0xfb, 0xfd, 0x02, 0xfd, 0xfe, 0x00, 0xff, 0x01, 0x01, 0x05, 0xfd,
  0xfe, 0x04, 0x04, 0x02, 0x02, 0x05, 0x01, 0x01, 0x05, 0x03, 0x02, 0xfe,
  0x02, 0x01, 0xfd, 0xfc, 0x05, 0x03, 0x02, 0xff, 0xfa, 0xfc, 0xfd, 0xff,
  0xfc, 0xfd, 0x03, 0xfd, 0x02, 0x04, 0x00, 0x00, 0x06, 0xfe, 0x01, 0xff,
  0xfc, 0x01, 0xff, 0xfd, 0x05, 0xfe, 0x02, 0x05, 0x02, 0x05, 0xfe, 0xff,
  0x03, 0xfb, 0x05, 0x01, 0xfe, 0xfe, 0xff, 0x00, 0xfe, 0x03, 0x01, 0x02,
  0xff, 0xfe, 0x01, 0xfc, 0x01, 0x04, 0x03, 0x03, 0xff, 0xfa, 0x01, 0xfb,
  0x05, 0x00, 0xff, 0x05, 0x01, 0xff, 0x00, 0x00, 0xfb, 0x02, 0xff, 0x05,
  0x04, 0xfd, 0x03, 0x00, 0xfd, 0x04, 0x04, 0xfb, 0xfe, 0x01, 0xfe, 0x05,
  0x00, 0x00, 0xfb, 0x00, 0xfa, 0x05, 0xfd, 0xfa, 0x01, 0xfb, 0xff, 0x05,
  0xfd, 0xfe, 0x03, 0x03, 0xfd, 0xfb, 0xfe, 0xfd, 0xff, 0x05, 0x02, 0x04,
  0xfd, 0x04, 0x04, 0x00, 0x04, 0x01, 0x02, 0x04, 0x05, 0xfd, 0xfa, 0x04,
  0xff, 0xfd, 0xfe, 0x01, 0x05, 0x02, 0x03, 0xfe, 0xfd, 0xfe, 0xfd, 0xfb,
  0xfb, 0x05, 0xfe, 0x04, 0xff, 0x03, 0xff, 0xfc, 0xfb, 0x01, 0xfe, 0xff,
  0xfe, 0xfc, 0xfc, 0xff, 0xfb, 0xff, 0x00, 0xfb, 0x03, 0x02, 0xff, 0x03,
  0xfd, 0xfc, 0x03, 0x02, 0x05, 0xfb, 0xfd, 0xff, 0x01, 0x04, 0xfe, 0xfb,
  0xff, 0x04, 0xfb, 0x02, 0xfa, 0x01, 0xfc, 0x00, 0xff, 0x04, 0xfb, 0x02,
  0x01, 0x01, 0x01, 0x03, 0xfb, 0x00, 0x01, 0x02, 0xff, 0x04, 0x00, 0x04,
  0x02, 0x02, 0xfb, 0x04, 0xff, 0x05, 0x02, 0xfd, 0x02, 0x04, 0x00, 0xfc,
  0xff, 0xfb, 0x00, 0xfd, 0xfc, 0x01, 0xfb, 0xfc, 0xfe, 0xfe, 0x03, 0x03,
  0x03, 0x03, 0xfb, 0xfd, 0x05, 0x00, 0xfa, 0xfd, 0xfe, 0x02, 0x01, 0x03,
  0x00, 0x00, 0xfe, 0x01, 0xfe, 0x05, 0x01, 0x02, 0x02, 0x01, 0x02, 0x02,
  0x03, 0xfc, 0x05, 0xfe, 0xfd, 0xfb, 0xfd, 0x03, 0x00, 0x01, 0x01, 0xfe,
  0x05, 0x02, 0xfe, 0xfb, 0x02, 0x01, 0x05, 0x02, 0xfb, 0x03, 0xfe, 0xfb,
  0xfb, 0xfd, 0xfb, 0xfd, 0x03, 0x00, 0xff, 0x02, 0x05, 0x05, 0x05, 0x05,
  0x04, 0xfd, 0xfd, 0x06, 0xfd, 0xfc, 0xfd, 0x02, 0xfd, 0xfe, 0x03, 0xfc,
  0xfa, 0x02, 0xfe, 0x01, 0x02, 0x05, 0x03, 0x01, 0x03, 0xfb, 0x01, 0x02,
  0xfe, 0x02, 0xfb, 0xfd, 0xfc, 0xff, 0xfd, 0x04, 0xfd, 0x04, 0x02, 0x04,
  0xff, 0x05, 0xfb, 0x03, 0xfe, 0x03, 0xff, 0x03, 0xfb, 0x01, 0xfb, 0xfe,
  0x03, 0x01, 0x00, 0x02, 0x00, 0xfb, 0x05, 0xfb, 0xfc, 0x03, 0xfd, 0xfd,
  0x01, 0x03, 0x04, 0x00, 0xfd, 0x04, 0xfa, 0x01, 0xff, 0x03, 0xfa, 0x05,
  0xfe, 0x03, 0x00, 0x01, 0xfb, 0xff, 0x02, 0x03, 0xfa, 0xfc, 0x05, 0xfb,
  0xfb, 0x03, 0xff, 0xff, 0x03, 0xfe, 0x05, 0x03, 0x05, 0x04, 0xff, 0x01,
  0x00, 0x04, 0xfb, 0xfc, 0x02, 0xfb, 0xff, 0xfe, 0x00, 0xfd, 0x05, 0xfb,
  0x03, 0x04, 0xfe, 0xfa, 0x00, 0xfe, 0x00, 0xff, 0xfe, 0x03, 0x04, 0x00,
  0xfc, 0xfa, 0x00, 0x03, 0x02, 0xfb, 0xfb, 0x00, 0xfb, 0xfa, 0xff, 0x04,
  0xfb, 0xfb, 0x00, 0xfa, 0x02, 0x02, 0x05, 0xfa, 0xfa, 0xfa, 0x02, 0x05,
  0x05, 0xfe, 0xfb, 0x02, 0xfa, 0xff, 0xff, 0xfc, 0x00, 0x00, 0x05, 0xfa,
  0xfd, 0x04, 0x05, 0x02, 0xfd, 0x00, 0xfb, 0x00, 0xfc, 0x02, 0xfe, 0xfb,
  0xfc, 0xfb, 0x00, 0x02, 0xfb, 0x01, 0x03, 0xff, 0x04, 0xfa, 0xff, 0xfe,
  0x01, 0xfa, 0xfc, 0x02, 0xfd, 0xfa, 0x01, 0x01, 0xfd, 0xfa, 0xfb, 0x04,
  0x04, 0xfe, 0x06, 0xfb, 0x00, 0x05, 0xff, 0xfc, 0xfd, 0xfd, 0x02, 0xfe,
  0xfc, 0x04, 0xfb, 0x01, 0xfa, 0x05, 0xfe, 0x03, 0xfc, 0x03, 0x00, 0xfb,
  0x02, 0x05, 0x00, 0x00, 0xfe, 0x00, 0x04, 0xfb, 0xfa, 0xfd, 0xfe, 0x04,
  0x00, 0xfa, 0xfc, 0xfd, 0x03, 0x03, 0x05, 0xfc, 0x02, 0xfc, 0xfb, 0xfd,
  0x02, 0x01, 0x02, 0xfa, 0x01, 0xfd, 0xfe, 0x05, 0x04, 0xfa, 0x01, 0xfc,
  0xfe, 0xfb, 0xfc, 0x01, 0xff, 0xff, 0xfc, 0x02, 0x06, 0xfd, 0xfd, 0x04,
  0x00, 0x03, 0x00, 0xfc, 0x03, 0x05, 0x02, 0xfe, 0xfb, 0x05, 0x02, 0x00,
  0xfa, 0x02, 0x04, 0x01, 0x02, 0x02, 0xff, 0xfe, 0x04, 0x04, 0xfb, 0x02,
  0xfa, 0xfa, 0x00, 0xfd, 0x02, 0xff, 0x01, 0xfb, 0x02, 0xfd, 0xfd, 0xfe,
  0x01, 0xff, 0x04, 0xfd, 0x01, 0x03, 0xfc, 0xfe, 0xfa, 0x00, 0x02, 0x01,
  0xfa, 0xfa, 0xfa, 0xff, 0xfb, 0x05, 0x04, 0x00, 0x02, 0xff, 0xfa, 0xff,
  0x03, 0xfc, 0xff, 0x05, 0x05, 0x01, 0x03, 0x01, 0xfc, 0x03, 0xff, 0xfe,
  0xfb, 0x02, 0xfc, 0xff, 0x03, 0xfe, 0x01, 0xfb, 0x04, 0xfc, 0xfc, 0x01,
  0xfb, 0xff, 0xfc, 0x04, 0xfd, 0x03, 0x03, 0xfb, 0x04, 0xfa, 0xfc, 0xfc,
  0x02, 0xfb, 0xfd, 0x04, 0x02, 0x00, 0x02, 0x00, 0xfb, 0x02, 0xfc, 0xff,
  0x02, 0xfe, 0xfa, 0x02, 0xff, 0xfc, 0xfa, 0x03, 0xfc, 0xfe, 0xfe, 0xfd,
  0x01, 0xfe, 0x04, 0xfb, 0xfc, 0x05, 0xfa, 0x01, 0x01, 0xfd, 0xfb, 0xfa,
  0x03, 0x02, 0x01, 0x04, 0x05, 0x04, 0x02, 0xfd, 0xfc, 0x00, 0x02, 0xfe,
  0x02, 0xff, 0x03, 0x02, 0x05, 0x00, 0xfb, 0xfe, 0x03, 0x02, 0x02, 0x03,
  0xfd, 0xfd, 0x00, 0x00, 0xfe, 0xfd, 0xfe, 0x02, 0xfa, 0xfd, 0x06, 0xff,
  0xfc, 0xff, 0x03, 0x01, 0xfa, 0xfc, 0x00, 0xfb, 0x04, 0xfe, 0x03, 0x02,
  0x02, 0x03, 0x05, 0xfb, 0xfd, 0x02, 0x04, 0xfb, 0x01, 0x01, 0xff, 0xff,
  0x03, 0x01, 0x04, 0x05, 0x03, 0x05, 0xff, 0xfb, 0xfc, 0x03, 0x04, 0xfb,
  0xff, 0xff, 0x02, 0xfd, 0xff, 0xfd, 0x03, 0xff, 0xfd, 0x03, 0x04, 0x04,
  0x01, 0x01, 0x04, 0xfc, 0xfa, 0xfe, 0xfb, 0x04, 0x05, 0x05, 0xfb, 0xff,
  0xff, 0x04, 0xff, 0xff, 0xfb, 0x00, 0xfd, 0x01, 0x03, 0xfa, 0xfa, 0xfc,
  0xfb, 0x00, 0xfc, 0xfb, 0xfc, 0x03, 0x04, 0xfc, 0xfe, 0xfa, 0x04, 0x01,
  0xff, 0xfb, 0xfc, 0x01, 0xfc, 0xfc, 0x01, 0x02, 0xfd, 0x00, 0x04, 0xfc,
  0x05, 0x01, 0xfe, 0x04, 0x05, 0xff, 0x04, 0xfd, 0x05, 0xfd, 0x04, 0x06,
  0x02, 0x01, 0xfd, 0x01, 0x03, 0x00, 0x00, 0xfc, 0x06, 0x01, 0xfe, 0xfe,
  0x06, 0xfc, 0xff, 0xfc, 0xfd, 0x01, 0xfc, 0x03, 0xfb, 0x05, 0xfd, 0xfb,
  0xfd, 0xfc, 0xff, 0x06, 0x01, 0xff, 0xfb, 0x06, 0x00, 0x03, 0xff, 0xfc,
  0x01, 0x00, 0x01, 0x01, 0x03, 0xfe, 0xfb, 0xfd, 0xfe, 0xfa, 0x03, 0x00,
  0xfd, 0xfd, 0x04, 0xf9, 0xfe, 0xff, 0x03, 0xfd, 0x03, 0xfc, 0xfc, 0x00,
  0x01, 0xfa, 0x01, 0x00, 0x04, 0x00, 0x03, 0x01, 0x05, 0x04, 0xff, 0x04,
  0xff, 0x00, 0x02, 0xfd, 0x02, 0x02, 0x01, 0x03, 0x04, 0x04, 0xfd, 0xfd,
  0x04, 0x02, 0xfe, 0xfe, 0xfb, 0x00, 0x00, 0x03, 0x05, 0xfa, 0x04, 0xfe,
  0xfd, 0xfd, 0xff, 0xfe, 0xfe, 0x03, 0x00, 0xfc, 0x04, 0xff, 0x03, 0x01,
  0xfe, 0xfc, 0xfb, 0x04, 0x03, 0x03, 0x05, 0x05, 0x05, 0xfb, 0xff, 0x02,
  0xfd, 0x04, 0xff, 0xfd, 0x01, 0xfb, 0x05, 0xfb, 0x05, 0xfe, 0x04, 0xfe,
  0x00, 0x04, 0x03, 0xfe, 0x03, 0x02, 0x05, 0x01, 0x05, 0x03, 0x02, 0xff,
  0xfb, 0xfc, 0x06, 0xfc, 0xfa, 0x06, 0x00, 0x00, 0x04, 0xfc, 0xfe, 0x03,
  0xfa, 0x00, 0x06, 0xfa, 0x01, 0xfb, 0xfd, 0x05, 0x01, 0xff, 0x03, 0xfc,
  0x01, 0x02, 0x01, 0x04, 0x03, 0xfe, 0x01, 0x03, 0xfe, 0x01, 0x05, 0x00,
  0x02, 0xfe, 0x02, 0x01, 0xfd, 0x05, 0x07, 0x04, 0xfb, 0xff, 0x00, 0x03,
  0xfb, 0x03, 0xfe, 0xfb, 0xff, 0x01, 0xfa, 0x05, 0x03, 0x02, 0xfe, 0x00,
  0x04, 0x01, 0x03, 0xfd, 0x01, 0xfc, 0xfd, 0x00, 0x01, 0xfc, 0xfb, 0x05,
  0x03, 0xfd, 0x02, 0x01, 0x03, 0xfb, 0x03, 0x05, 0xfc, 0x00, 0x03, 0xfc,
  0x01, 0xff, 0x05, 0x00, 0x02, 0xff, 0x02, 0x05, 0x03, 0xf9, 0x02, 0x01,
  0xfe, 0xfd, 0x00, 0x00, 0xfc, 0xfc, 0xfe, 0x04, 0xfe, 0x01, 0xfb, 0xfb,
  0xfc, 0x02, 0x05, 0xfc, 0xff, 0x00, 0x03, 0x04, 0xfb, 0xfe, 0x05, 0x03,
  0x04, 0xfc, 0xfe, 0xfe, 0x03, 0xfc, 0x02, 0xfb, 0x04, 0x03, 0x03, 0xfe,
  0x00, 0xfb, 0x04, 0xfe, 0x00, 0x03, 0xfb, 0xff, 0xff, 0x05, 0x01, 0x03,
  0xfe, 0x06, 0xff, 0xff, 0x04, 0xfe, 0xfb, 0x04, 0xfd, 0x02, 0x01, 0x00,
  0xff, 0x04, 0x01, 0x01, 0xfc, 0xff, 0x04, 0x00, 0xfc, 0x04, 0xfb, 0x01,
  0x02, 0x01, 0x04, 0xfc, 0xfb, 0x00, 0xfe, 0xff, 0xfe, 0x06, 0xfe, 0xfd,
  0xfa, 0x02, 0x05, 0x05, 0x05, 0x07, 0xfb, 0x02, 0x01, 0x03, 0x06, 0x01,
  0x06, 0xfa, 0xfb, 0x06, 0x01, 0x04, 0xfb, 0xfc, 0xff, 0x00, 0x04, 0x06,
  0xff, 0xfc, 0xfa, 0xfe, 0x02, 0x05, 0x01, 0x01, 0xfa, 0x02, 0x06, 0x05,
  0xfc, 0x01, 0x05, 0x05, 0xfc, 0xfe, 0x01, 0x04, 0x03, 0xfb, 0xfd, 0xfe,
  0xfa, 0x00, 0x02, 0xfb, 0xfc, 0x00, 0xfd, 0x01, 0x04, 0x03, 0xfc, 0x02,
  0xfd, 0xfb, 0xfe, 0x02, 0xfc, 0x06, 0x05, 0xff, 0xfe, 0xff, 0xff, 0xfa,
  0x05, 0xff, 0xfc, 0xfe, 0x04, 0x03, 0xff, 0x03, 0x00, 0x00, 0xf9, 0x02,
  0x05, 0xfb, 0x00, 0x03, 0x01, 0xfd, 0xfd, 0xfc, 0xfd, 0x02, 0xfd, 0x05,
  0x04, 0xfc, 0xfe, 0xfa, 0xfd, 0x04, 0x01, 0xfc, 0xfc, 0x00, 0xfc, 0x05,
  0x02, 0xff, 0x04, 0x00, 0x05, 0x04, 0xfb, 0x00, 0xff, 0x05, 0xfb, 0xfc,
  0xfe, 0xfa, 0x06, 0x02, 0x05, 0x01, 0x03, 0xfb, 0xfc, 0x00, 0xfd, 0x04,
  0xff, 0xfe, 0x00, 0x00, 0xfb, 0x03, 0x05, 0x04, 0x02, 0x03, 0xfc, 0x00,
  0xfb, 0xfe, 0x05, 0xff, 0xfb, 0x04, 0x00, 0xfc, 0x04, 0x02, 0x00, 0x05,
  0x05, 0x06, 0x03, 0x06, 0x02, 0x05, 0xfc, 0xfd, 0xfe, 0xff, 0xfc, 0x01,
  0x03, 0x03, 0x04, 0x02, 0xfd, 0x06, 0x02, 0x04, 0xfa, 0x01, 0xfa, 0x00,
  0xff, 0x03, 0xfe, 0x02, 0x02, 0xf9, 0x04, 0xfd, 0x04, 0x01, 0xfe, 0xfc,
  0x03, 0x04, 0xfb, 0x01, 0x02, 0x02, 0xfc, 0xfc, 0x00, 0x01, 0xfe, 0xfd,
  0xfb, 0xfc, 0x03, 0xfd, 0xff, 0xfd, 0xff, 0xfc, 0x05, 0xfb, 0xfd, 0xfe,
  0x06, 0x06, 0xfe, 0xfd, 0xfd, 0xfc, 0x05, 0x01, 0x02, 0xfe, 0xff, 0x02,
  0xfe, 0x05, 0xfb, 0xfc, 0xfe, 0xfe, 0x03, 0x02, 0xff, 0x02, 0xfc, 0x04,
  0x01, 0x03, 0x05, 0xfb, 0xfd, 0x01, 0x05, 0x00, 0x05, 0xf9, 0xfa, 0x01,
  0xfb, 0xfb, 0x06, 0xfe, 0xfe, 0xff, 0x00, 0x02, 0x03, 0x01, 0x05, 0x00,
  0xfd, 0x05, 0xff, 0x02, 0xfa, 0xfd, 0x03, 0xfd, 0xfb, 0x05, 0x02, 0x01,
  0x04, 0xfa, 0xfc, 0xfb, 0xfa, 0x02, 0x04, 0x04, 0x01, 0xfb, 0xfd, 0xfd,
  0x02, 0xff, 0x05, 0xfc, 0x00, 0xff, 0x00, 0xff, 0xfe, 0xff, 0x02, 0x03,
  0xfa, 0x03, 0xff, 0xfd, 0xfe, 0x04, 0x04, 0x05, 0xfc, 0xfb, 0x06, 0xfa,
  0x01, 0xff, 0x00, 0xfb, 0x00, 0x00, 0x03, 0x01, 0xfe, 0x00, 0x01, 0xff,
  0x02, 0x02, 0xfe, 0xfe, 0x01, 0x05, 0xfe, 0x01, 0xf9, 0x03, 0xfe, 0x00,
  0x02, 0x03, 0x04, 0xfd, 0x01, 0xfc, 0xfe, 0xff, 0xfd, 0xfd, 0x04, 0xfe,
  0x00, 0x03, 0xf9, 0x05, 0xfd, 0x03, 0xff, 0xfe, 0x02, 0x04, 0xfc, 0x00,
  0x05, 0xfb, 0x03, 0x01, 0xfd, 0xfd, 0xff, 0x06, 0x04, 0x06, 0x02, 0xfd,
  0xfc, 0xff, 0x01, 0xff, 0x04, 0x03, 0xfa, 0x05, 0x04, 0xfb, 0xfe, 0x05,
  0xfd, 0x01, 0x03, 0xff, 0xff, 0x04, 0x03, 0xfe, 0x04, 0xfc, 0xfd, 0x00,
  0x04, 0xff, 0xfc, 0x00, 0xff, 0xfc, 0xfb, 0x00, 0xfd, 0x02, 0x01, 0xff,
  0xfb, 0x05, 0xff, 0xfc, 0x04, 0x01, 0x03, 0x04, 0x00, 0x06, 0xfe, 0x02,
  0x00, 0x03, 0x04, 0xfb, 0xff, 0xfb, 0xfb, 0x02, 0xfb, 0xfe, 0xff, 0x01,
  0x03, 0x02, 0xfc, 0xfd, 0xfd, 0xff, 0x01, 0x03, 0xfd, 0x02, 0xff, 0x05,
  0xfa, 0xfc, 0x04, 0x06, 0x00, 0xfe, 0x04, 0xfc, 0x02, 0xfb, 0x00, 0x00,
  0xfd, 0x05, 0xff, 0x06, 0xfd, 0xfd, 0x05, 0xfa, 0xfc, 0xfc, 0xfd, 0x05,
  0xff, 0x05, 0xff, 0x00, 0x05, 0xfd, 0xfe, 0x03, 0xfd, 0x03, 0xfa, 0x03,
  0x04, 0x00, 0xfd, 0xfe, 0x00, 0xfc, 0xff, 0x05, 0x00, 0x05, 0xfb, 0x03,
  0x00, 0x01, 0x05, 0x00, 0xfb, 0xfe, 0x04, 0xff, 0x02, 0x04, 0x00, 0x06,
  0x04, 0x04, 0x05, 0x03, 0xfb, 0x04, 0xfe, 0xfd, 0x03, 0x00, 0xfd, 0xfe,
  0xfc, 0x03, 0xfa, 0x04, 0xfb, 0xfa, 0x01, 0x01, 0x02, 0x04, 0x00, 0x02,
  0x01, 0x02, 0xfe, 0xff, 0xfe, 0xfe, 0xfd, 0xfc, 0x02, 0xff, 0xfb, 0x00,
  0xfe, 0x00, 0xfe, 0x03, 0xfe, 0xfd, 0xfe, 0x06, 0xfd, 0xfc, 0xfc, 0xfb,
  0x02, 0xfb, 0x07, 0xff, 0x03, 0x06, 0xfe, 0xff, 0x00, 0xfb, 0xfb, 0xff,
  0xff, 0x00, 0x00, 0xfb, 0x05, 0xff, 0x02, 0x00, 0x06, 0x01, 0xfc, 0xff,
  0x03, 0x03, 0x00, 0xfd, 0xfe, 0x00, 0x00, 0x03, 0x05, 0xfd, 0x00, 0xfd,
  0xfe, 0xff, 0xfb, 0x05, 0x04, 0xfe, 0x05, 0x04, 0xfe, 0x04, 0x04, 0xfc,
  0xfe, 0xfc, 0xfb, 0xfb, 0x05, 0x03, 0x05, 0x00, 0xff, 0x00, 0xfd, 0x00,
  0xfe, 0xfd, 0xff, 0xfc, 0x02, 0x05, 0x01, 0x03, 0x01, 0xfb, 0xff, 0xfc,
  0xfc, 0x03, 0xfc, 0x03, 0xfd, 0x03, 0xfd, 0x01, 0x03, 0xfc, 0xfc, 0x00,
  0xfc, 0x04, 0xfd, 0x04, 0x04, 0x01, 0xfc, 0xfc, 0xfa, 0x01, 0x01, 0xfc,
  0xfe, 0x03, 0x02, 0xfd, 0xfe, 0x04, 0x05, 0x05, 0xfb, 0x04, 0x05, 0xff,
  0x03, 0xfa, 0x03, 0x04, 0xfe, 0xfe, 0x02, 0xff, 0x00, 0x00, 0x01, 0x02,
  0x05, 0x01, 0x01, 0xfe, 0x02, 0xfe, 0x01, 0x01, 0xfe, 0xfd, 0xfa, 0x05,
  0xff, 0x04, 0xfd, 0x02, 0x01, 0xfd, 0x00, 0x05, 0xfc, 0x05, 0x05, 0x03,
  0x04, 0xfc, 0xfc, 0xfa, 0xfc, 0xfb, 0xfe, 0xfc, 0x03, 0x00, 0x04, 0x05,
  0x00, 0xff, 0xfe, 0x02, 0x02, 0xfe, 0x04, 0xfd, 0x01, 0x02, 0xfc, 0x05,
  0x05, 0xff, 0x02, 0xfe, 0x04, 0xfb, 0x03, 0xfa, 0x00, 0xfb, 0xfb, 0xfb,
  0x01, 0x00, 0x02, 0xfb, 0xfb, 0xfb, 0x04, 0xfc, 0xff, 0xfb, 0x05, 0x02,
  0x00, 0x05, 0x00, 0x05, 0x05, 0xfb, 0xfd, 0xfa, 0x03, 0xff, 0x00, 0x00,
  0x05, 0xfd, 0x00, 0xfb, 0x01, 0x03, 0x05, 0x03, 0xfd, 0x05, 0xfd, 0xfc,
  0xfc, 0x04, 0x02, 0x02, 0xff, 0x02, 0xff, 0x00, 0xff, 0xfb, 0xfe, 0xfc,
  0x04, 0xfe, 0xff, 0xfa, 0xfe, 0x02, 0x05, 0xfe, 0x04, 0x05, 0x00, 0x04,
  0x03, 0x00, 0xff, 0x01, 0x04, 0xfe, 0xfb, 0x04, 0x01, 0x01, 0x00, 0xfb,
  0x01, 0xfe, 0xfd, 0xfc, 0xfc, 0x01, 0x01, 0xfb, 0xfe, 0xff, 0xfb, 0xfa,
  0x04, 0x07, 0xfd, 0x00, 0x02, 0x03, 0x02, 0xfc, 0xfe, 0x02, 0xfa, 0x05,
  0xfd, 0x06, 0xfe, 0xfe, 0x00, 0x03, 0x00, 0xff, 0x04, 0x00, 0x05, 0xff,
  0xff, 0xfb, 0x00, 0x04, 0xfa, 0x05, 0xfe, 0x00, 0xfe, 0x00, 0x04, 0xfb,
  0xfb, 0x01, 0x04, 0x01, 0x02, 0xfa, 0x04, 0x00, 0x02, 0xfb, 0xfb, 0x04,
  0xfd, 0x05, 0xfe, 0x00, 0x02, 0x06, 0x00, 0xfc, 0xff, 0x02, 0x01, 0x02,
  0x00, 0xfd, 0xfa, 0xfc, 0x01, 0xfd, 0x01, 0xfb, 0x05, 0xff, 0x04, 0x00,
  0x03, 0x06, 0xfe, 0xff, 0x00, 0xfc, 0x00, 0xfa, 0x02, 0x04, 0x03, 0x01,
  0x00, 0x05, 0x02, 0x04, 0x05, 0x06, 0xfc, 0xfa, 0x05, 0xfe, 0x05, 0xff,
  0x00, 0xfc, 0x04, 0x05, 0x02, 0x04, 0x00, 0xff, 0xfd, 0xff, 0xfb, 0x01,
  0x02, 0xfe, 0xff, 0x05, 0xfa, 0x04, 0x02, 0x05, 0x02, 0xfd, 0xfd, 0xfe,
  0xff, 0xfb, 0x04, 0x05, 0xfd, 0x05, 0x00, 0x05, 0xfb, 0xfc, 0x00, 0xff,
  0x02, 0x00, 0xfe, 0xfb, 0x05, 0xfb, 0x06, 0x06, 0x03, 0x06, 0xff, 0x03,
  0x05, 0xfb, 0xfc, 0x03, 0x06, 0xfb, 0x03, 0x03, 0x05, 0xfc, 0xfb, 0x04,
  0xfe, 0x01, 0xfc, 0x06, 0xfc, 0xfb, 0x01, 0x00, 0x05, 0xfa, 0xfa, 0xff,
  0xff, 0x03, 0x04, 0xff, 0xfb, 0x05, 0x01, 0x03, 0x02, 0xfa, 0x05, 0xfe,
  0x04, 0x04, 0x03, 0x02, 0x00, 0xfe, 0x04, 0xff, 0x03, 0x03, 0xff, 0x04,
  0x01, 0x01, 0x02, 0x01, 0xff, 0xfa, 0x00, 0xfc, 0xff, 0x02, 0xff, 0xfc,
  0xfe, 0xfb, 0x01, 0xfd, 0x03, 0xff, 0xfa, 0xfc, 0x03, 0x03, 0xfa, 0xfe,
  0xfe, 0x03, 0xfa, 0x05, 0xfa, 0xff, 0xfc, 0xfe, 0x01, 0xfe, 0x00, 0x01,
  0xfe, 0x04, 0x05, 0x04, 0x03, 0xfa, 0x05, 0x02, 0xfb, 0x04, 0x00, 0xfc,
  0x01, 0x01, 0x05, 0x01, 0xfd, 0x01, 0x01, 0x00, 0xfc, 0x02, 0x05, 0x02,
  0x00, 0xfd, 0x04, 0x04, 0xfd, 0x03, 0x03, 0x02, 0x00, 0x02, 0x01, 0x00,
  0x00, 0xfc, 0x01, 0xfb, 0xff, 0x00, 0xff, 0xfa, 0x04, 0xfa, 0x04, 0x04,
  0x05, 0x05, 0xfd, 0x02, 0xfb, 0xfc, 0xfd, 0xfc, 0x01, 0xfc, 0xfa, 0x05,
  0x02, 0x04, 0x03, 0x00, 0x05, 0x04, 0x05, 0xfe, 0xfb, 0xff, 0x03, 0x02,
  0xfe, 0xfb, 0xfb, 0x00, 0x05, 0x03, 0x05, 0xfa, 0x04, 0xfb, 0xfe, 0x01,
  0xfb, 0xfd, 0x04, 0xfd, 0xfc, 0xfe, 0x03, 0x01, 0xff, 0x02, 0xff, 0x05,
  0xff, 0x03, 0x02, 0xff, 0x05, 0x03, 0x02, 0x01, 0xfd, 0xf9, 0x04, 0xfa,
  0xff, 0xfc, 0x01, 0xfe, 0xfa, 0x00, 0x05, 0x02, 0x06, 0x02, 0xfb, 0x00,
  0xfd, 0xfa, 0xfd, 0x03, 0x00, 0x01, 0xfb, 0xff, 0x05, 0x01, 0xfe, 0x06,
  0xfc, 0xfc, 0x02, 0xfb, 0xfc, 0x03, 0xfc, 0xff, 0xfd, 0x05, 0xfc, 0xfb,
  0xfd, 0x03, 0xfe, 0xff, 0x01, 0xfc, 0x01, 0xfb, 0xfd, 0x01, 0x04, 0xff,
  0xfc, 0xff, 0x05, 0xff, 0x06, 0x02, 0x00, 0xfb, 0x05, 0xff, 0xfd, 0x04,
  0x00, 0x02, 0xff, 0x00, 0x01, 0xff, 0x03, 0x04, 0x04, 0xff, 0x03, 0x06,
  0x04, 0x05, 0xfb, 0x03, 0xfc, 0xfd, 0x02, 0xfe, 0xff, 0xfd, 0x01, 0x00,
  0x06, 0xff, 0x05, 0xfa, 0x00, 0xfc, 0xfa, 0x01, 0xff, 0xfb, 0x04, 0xfb,
  0xff, 0x03, 0x03, 0x01, 0xfd, 0x02, 0xfc, 0x01, 0x02, 0xfc, 0xfc, 0x03,
  0xfc, 0xfc, 0xfd, 0x05, 0xff, 0x05, 0xff, 0x06, 0xfb, 0xfc, 0xfd, 0x00,
  0xff, 0xfc, 0x00, 0xff, 0xff, 0xfa, 0x02, 0x06, 0x05, 0x05, 0xfe, 0x06,
  0xff, 0x05, 0xfd, 0x04, 0x03, 0x05, 0xfb, 0xfb, 0x00, 0x01, 0x00, 0x05,
  0x05, 0x03, 0xfe, 0x03, 0x05, 0xfb, 0x04, 0xff, 0xfd, 0x06, 0x03, 0xfd,
  0xfc, 0x03, 0x01, 0xfe, 0x00, 0x02, 0x02, 0xfe, 0xfd, 0x01, 0xfb, 0x05,
  0x05, 0x05, 0x03, 0xfb, 0xff, 0xff, 0x05, 0xff, 0x05, 0xfd, 0xff, 0xfa,
  0x00, 0xff, 0x00, 0x01, 0x04, 0xff, 0x05, 0x00, 0x02, 0x03, 0xfc, 0x02,
  0x04, 0xfc, 0xfb, 0xfe, 0x01, 0xfe, 0x03, 0x00, 0xfa, 0x03, 0x01, 0xfc,
  0x03, 0x00, 0x04, 0xfc, 0x04, 0xfb, 0xfb, 0x05, 0x02, 0x00, 0x02, 0x04,
  0x01, 0x05, 0xfc, 0xfb, 0xff, 0x01, 0x01, 0xfb, 0xfb, 0xfb, 0xfd, 0x04,
  0x02, 0xff, 0xfc, 0x03, 0xfc, 0x04, 0xfa, 0x03, 0x05, 0x01, 0x04, 0xfc,
  0x02, 0x00, 0xfa, 0xfd, 0x04, 0x05, 0x04, 0x04, 0xff, 0xff, 0xfb, 0xfd,
  0xff, 0x04, 0x03, 0x03, 0x05, 0xfd, 0xfe, 0x01, 0xff, 0x03, 0xfd, 0x01,
  0xfb, 0xfd, 0x03, 0x02, 0xfb, 0xfd, 0xfb, 0x04, 0xfd, 0x02, 0x01, 0x05,
  0xfa, 0xfe, 0x05, 0xfd, 0xfe, 0x01, 0x03, 0x03, 0xfa, 0x02, 0x04, 0xfb,
  0x01, 0x01, 0xfb, 0x00, 0xfc, 0xfa, 0xff, 0xfb, 0x00, 0xfe, 0xfa, 0x01,
  0x04, 0x02, 0xff, 0x02, 0xfd, 0x05, 0x05, 0x05, 0x00, 0x02, 0x04, 0xfa,
  0x05, 0xfc, 0xfc, 0x03, 0xfd, 0x07, 0xfb, 0xfb, 0xff, 0x02, 0x01, 0xfd,
  0xfe, 0x02, 0x05, 0x04, 0xfc, 0x03, 0xfa, 0xfd, 0x03, 0xfc, 0x04, 0x04,
  0xfc, 0x05, 0xfb, 0xfb, 0x00, 0x04, 0x03, 0xfc, 0xfd, 0xfe, 0x05, 0xfb,
  0xff, 0x01, 0xfb, 0x05, 0xff, 0x04, 0xff, 0x02, 0xff, 0xfe, 0xff, 0x04,
  0x00, 0xfc, 0xfc, 0x03, 0xfc, 0xff, 0xfe, 0x03, 0x01, 0x02, 0x01, 0xfc,
  0x05, 0x04, 0xfd, 0x03, 0x02, 0xfc, 0xff, 0x01, 0x01, 0x00, 0x04, 0x06,
  0xfc, 0x05, 0xff, 0x03, 0x04, 0xfa, 0xff, 0x03, 0xfb, 0x00, 0x03, 0xfd,
  0xfb, 0xfe, 0xfb, 0xfb, 0xff, 0x04, 0x03, 0x04, 0xfe, 0xfc, 0xff, 0xfd,
  0x05, 0xfc, 0xfc, 0x03, 0xff, 0x05, 0x04, 0xff, 0xfb, 0x03, 0x00, 0x00,
  0xfb, 0xfc, 0xff, 0x03, 0x00, 0xfc, 0x00, 0x04, 0xfb, 0xfd, 0xff, 0x00,
  0x04, 0xfc, 0xfb, 0x03, 0xfc, 0x00, 0x02, 0xfc, 0x02, 0xfc, 0xff, 0x00,
  0xfd, 0xff, 0x01, 0xfd, 0xfe, 0x04, 0x00, 0x05, 0x06, 0x04, 0x01, 0xfe,
  0x00, 0x02, 0x05, 0x00, 0x00, 0x00, 0xfc, 0xfc, 0x05, 0xfd, 0xfb, 0x04,
  0x01, 0x04, 0x01, 0x01, 0xfd, 0xfc, 0x00, 0x01, 0xff, 0xfd, 0xfc, 0x05,
  0x02, 0x00, 0x00, 0xfc, 0xfc, 0xfe, 0xfe, 0x03, 0x00, 0xfe, 0x02, 0x05,
  0xfe, 0x03, 0xfb, 0xfe, 0x02, 0x00, 0x04, 0x00, 0x03, 0xff, 0x02, 0xfd,
  0x05, 0x02, 0xfc, 0x04, 0xfe, 0xfa, 0xff, 0xfd, 0x05, 0x03, 0xfd, 0xfc,
  0x04, 0x06, 0xff, 0xfd, 0x00, 0x00, 0x00, 0xfe, 0x01, 0xfe, 0x04, 0x02,
  0x00, 0xfd, 0xfe, 0xfe, 0xff, 0x01, 0xfe, 0x03, 0x01, 0xff, 0xfe, 0xfd,
  0xfb, 0xfe, 0xff, 0xfa, 0xff, 0xfc, 0xfb, 0x01, 0x00, 0xfa, 0xfd, 0x01,
  0x01, 0x07, 0xfe, 0x03, 0xff, 0x04, 0xfd, 0xfb, 0xfd, 0xfb, 0xfb, 0xfb,
  0xfb, 0xfc, 0xfc, 0xfd, 0xfa, 0x02, 0xff, 0x01, 0x05, 0xfb, 0xfa, 0x02,
  0xfd, 0x06, 0xfe, 0xfd, 0xfa, 0x02, 0xfe, 0x05, 0xff, 0x02, 0x05, 0x05,
  0xfb, 0x06, 0xfd, 0xfb, 0xfe, 0x04, 0xfa, 0xfe, 0xfb, 0xfd, 0x05, 0xff,
  0xfa, 0xff, 0x00, 0x03, 0xfe, 0x02, 0xfd, 0xfb, 0x02, 0x00, 0xff, 0xfb,
  0xfe, 0xfb, 0x05, 0x06, 0xfe, 0x04, 0xfb, 0xfd, 0x00, 0xfe, 0x00, 0xfe,
  0xff, 0x05, 0xfb, 0x02, 0x01, 0x01, 0xfa, 0x01, 0xfb, 0x06, 0x00, 0xff,
  0x04, 0x04, 0x02, 0x00, 0x05, 0x03, 0x04, 0x02, 0x00, 0x03, 0xfe, 0xfa,
  0x02, 0x04, 0x04, 0x05, 0x04, 0x07, 0xfc, 0xfb, 0xfc, 0xff, 0x05, 0xfe,
  0x04, 0x02, 0x03, 0x03, 0xfc, 0x02, 0x00, 0x03, 0x01, 0xfc, 0xfa, 0xfb,
  0xff, 0xfd, 0x00, 0x05, 0xfc, 0x07, 0x00, 0x03, 0xfe, 0x02, 0xfc, 0xfe,
  0x05, 0xfd, 0xfa, 0x01, 0x02, 0xfd, 0x02, 0x05, 0x01, 0xff, 0x05, 0xfc,
  0x00, 0x01, 0xfe, 0x00, 0xff, 0xfc, 0x02, 0x01, 0xfd, 0x03, 0x05, 0x03,
  0x02, 0xfb, 0xfa, 0x00, 0x03, 0x04, 0xfe, 0xfd, 0x00, 0x03, 0x05, 0x04,
  0xff, 0x05, 0xfb, 0xfc, 0x03, 0xfd, 0x04, 0xfd, 0x05, 0xfb, 0xfe, 0x02,
  0x04, 0x03, 0x02, 0xfd, 0x02, 0xfb, 0x01, 0xfb, 0x05, 0xfd, 0x03, 0x01,
  0xfb, 0xff, 0xfe, 0x03, 0x00, 0x01, 0x02, 0x05, 0xfe, 0x00, 0xfb, 0xfb,
  0x03, 0x03, 0xff, 0xfe, 0x04, 0x02, 0x00, 0xff, 0x03, 0x05, 0xfe, 0x03,
  0xfa, 0xff, 0xfd, 0xfc, 0x02, 0xfc, 0xfe, 0x02, 0xfd, 0xfd, 0xfb, 0x05,
  0xff, 0xfe, 0x04, 0x03, 0x03, 0x05, 0xfc, 0x02, 0x03, 0x03, 0x03, 0x02,
  0x01, 0x05, 0x03, 0xfb, 0x02, 0xfd, 0xfb, 0xfc, 0x01, 0x02, 0x03, 0x00,
  0xfe, 0xfd, 0x05, 0xff, 0x05, 0x02, 0x00, 0x03, 0x04, 0xfb, 0x00, 0xfc,
  0xff, 0xff, 0x02, 0x00, 0xfb, 0x02, 0xfd, 0x00, 0x03, 0xfe, 0x05, 0x03,
  0xfd, 0xfe, 0x02, 0x04, 0x05, 0xfd, 0xfe, 0xff, 0xfe, 0x03, 0xfd, 0x02,
  0x01, 0x04, 0x02, 0x03, 0x03, 0x04, 0x02, 0xfb, 0xfe, 0xfa, 0x02, 0xfc,
  0xfe, 0xff, 0xfd, 0x01, 0xfb, 0x05, 0xfc, 0x03, 0xfc, 0x01, 0x03, 0xff,
  0xfe, 0x06, 0x05, 0x03, 0x05, 0x00, 0x04, 0x03, 0xfd, 0xfe, 0x01, 0xff,
  0x03, 0x06, 0x01, 0x04, 0x04, 0x02, 0xff, 0xfd, 0xfb, 0xff, 0xfc, 0x03,
  0x05, 0x03, 0x00, 0xfb, 0xfa, 0x02, 0xfc, 0xfb, 0xfd, 0xfd, 0xfb, 0x04,
  0x05, 0xfd, 0x04, 0xff, 0xfc, 0xff, 0x00, 0x03, 0x05, 0x03, 0xfd, 0x00,
  0x00, 0x04, 0x02, 0xfe, 0xfb, 0xfc, 0xfe, 0x03, 0xfd, 0x00, 0x05, 0xfe,
  0x03, 0xfb, 0x00, 0x00, 0xfd, 0xfc, 0xff, 0xfc, 0x04, 0xfc, 0x03, 0x04,
  0x05, 0xff, 0xfd, 0x04, 0xfb, 0xfa, 0x04, 0xff, 0xfe, 0xfb, 0xf9, 0x04,
  0xfc, 0x05, 0xfb, 0xfb, 0x06, 0x06, 0xfe, 0xfe, 0x00, 0x03, 0x00, 0xff,
  0xfc, 0xfd, 0xfb, 0xff, 0x05, 0x07, 0xfd, 0x01, 0x00, 0x04, 0xfe, 0x00,
  0x00, 0x03, 0xfc, 0xff, 0xfc, 0x06, 0x04, 0x03, 0xfd, 0xff, 0xff, 0xfd,
  0xfe, 0xfe, 0xfe, 0xfe, 0xfe, 0xfe, 0x04, 0xfc, 0x05, 0xfc, 0xff, 0x01,
  0xff, 0xfc, 0xfd, 0x02, 0x05, 0xfe, 0xfe, 0x05, 0x00, 0xfe, 0xfe, 0xfa,
  0x02, 0x02, 0x03, 0x02, 0xfe, 0xfb, 0x03, 0xfd, 0xff, 0x06, 0xfb, 0xfb,
  0x00, 0xfc, 0x02, 0x05, 0x04, 0x03, 0xfc, 0x07, 0xfb, 0x04, 0x03, 0x02,
  0xfc, 0xfe, 0xff, 0xfc, 0x00, 0xfd, 0x00, 0xfe, 0x02, 0x05, 0xfd, 0xfb,
  0x04, 0x02, 0x00, 0x02, 0x02, 0xfc, 0x04, 0x01, 0xfd, 0xfe, 0x02, 0xfd,
  0x00, 0x05, 0x06, 0x01, 0xfc, 0xfa, 0xfc, 0xfd, 0x06, 0xff, 0xff, 0x03,
  0x03, 0xfe, 0xfd, 0xfb, 0x05, 0xff, 0x01, 0x00, 0x00, 0x05, 0x01, 0x01,
  0xfe, 0x00, 0x01, 0xfe, 0xfe, 0x00, 0x02, 0xfd, 0x04, 0xfe, 0xfc, 0x01,
  0x03, 0xfc, 0xff, 0x05, 0xfb, 0x04, 0x02, 0xfd, 0x00, 0x04, 0x04, 0x02,
  0xfb, 0xfd, 0xfb, 0xfa, 0x00, 0xfa, 0x02, 0x02, 0x04, 0x02, 0xff, 0xfd,
  0xfe, 0x04, 0xfd, 0x01, 0xfa, 0xfc, 0x00, 0x00, 0xfc, 0x06, 0xfd, 0xff,
  0x00, 0x02, 0x04, 0x05, 0xfa, 0x05, 0x01, 0xfb, 0x03, 0x00, 0xfc, 0x04,
  0x00, 0xfc, 0xfc, 0x05, 0xfc, 0x00, 0xfd, 0xfb, 0xfb, 0xfc, 0xfb, 0x04,
  0x05, 0x02, 0xfc, 0xfc, 0xfc, 0x03, 0xff, 0xff, 0x03, 0x01, 0x04, 0x00,
  0xfc, 0xfc, 0xfc, 0xfd, 0x00, 0xfe, 0xfe, 0xfb, 0xfa, 0x03, 0xfa, 0x04,
  0x04, 0x04, 0xfe, 0x05, 0x02, 0x06, 0xfc, 0x02, 0x02, 0x03, 0x03, 0xfe,
  0x02, 0x05, 0xfa, 0x04, 0x05, 0xfa, 0x02, 0x02, 0xfb, 0xfd, 0x05, 0x01,
  0x02, 0xfc, 0xfd, 0x05, 0xfd, 0x00, 0xfe, 0xfe, 0xfd, 0x00, 0x03, 0xfa,
  0x05, 0xfd, 0x01, 0xfe, 0xfb, 0x01, 0xfe, 0x00, 0x01, 0xfe, 0xfd, 0x05,
  0x01, 0xfd, 0x02, 0x05, 0xff, 0x01, 0x05, 0x05, 0xfb, 0x03, 0xfa, 0x00,
  0x02, 0xfd, 0x05, 0xfe, 0xfd, 0x00, 0xfd, 0x05, 0x01, 0x02, 0xfc, 0x00,
  0xff, 0x00, 0x00, 0xff, 0x02, 0xfe, 0xff, 0x01, 0xfe, 0xfe, 0xfb, 0x04,
  0x01, 0xff, 0xff, 0x04, 0xfc, 0x06, 0xfb, 0x02, 0xff, 0x01, 0x00, 0x02,
  0x05, 0x05, 0x00, 0x02, 0xfe, 0xfe, 0x00, 0xfc, 0x02, 0x05, 0xfd, 0xfe,
  0xff, 0xfb, 0x02, 0x01, 0xff, 0xfe, 0xfc, 0x05, 0x02, 0x02, 0xfa, 0xff,
  0xfa, 0xfe, 0x04, 0x01, 0xfa, 0x03, 0x00, 0x00, 0x04, 0x03, 0x05, 0x03,
  0x06, 0xfc, 0x01, 0xfa, 0xfd, 0x02, 0xfe, 0x03, 0xfb, 0xfc, 0xfd, 0x02,
  0xfa, 0x04, 0x01, 0xfc, 0xfe, 0x02, 0x04, 0xfd, 0x04, 0xfc, 0x03, 0x02,
  0x01, 0xfb, 0xfd, 0x02, 0xff, 0x01, 0xfb, 0xfe, 0xfa, 0xfc, 0xfb, 0x02,
  0xfe, 0x05, 0x00, 0xff, 0xfa, 0x05, 0xfd, 0xfb, 0xff, 0x01, 0xfc, 0xff,
  0x05, 0xfe, 0x02, 0xfb, 0xfd, 0x04, 0xfb, 0x00, 0xfb, 0x06, 0x04, 0xfe,
  0x02, 0xfd, 0xff, 0xfb, 0x01, 0x03, 0x04, 0x03, 0x03, 0x05, 0x03, 0x01,
  0xfb, 0x03, 0xff, 0xfe, 0xfe, 0x04, 0xfb, 0xfd, 0x01, 0x00, 0xfc, 0x04,
  0xfd, 0xfc, 0x05, 0x02, 0x03, 0x05, 0xff, 0xfc, 0xfc, 0x00, 0xff, 0x02,
  0x03, 0x01, 0xfe, 0x04, 0x04, 0x03, 0x00, 0xfd, 0xfb, 0x01, 0x02, 0x06,
  0xfc, 0x05, 0x03, 0x03, 0x00, 0xfc, 0xfd, 0xff, 0xfd, 0xfc, 0xfd, 0xff,
  0xfd, 0x03, 0x05, 0x04, 0xfd, 0xfb, 0x00, 0xff, 0xfe, 0xfe, 0xfe, 0xfc,
  0x04, 0x03, 0x05, 0x01, 0xfb, 0xff, 0x03, 0x04, 0xfe, 0xfb, 0xfd, 0x01,
  0x01, 0x06, 0xff, 0x01, 0x04, 0x05, 0xfc, 0x02, 0x04, 0x02, 0x01, 0xfa,
  0x02, 0x02, 0x00, 0x05, 0x00, 0xfc, 0x01, 0xfe, 0x02, 0xfc, 0xfa, 0x00,
  0x03, 0xfd, 0xfe, 0x02, 0xfc, 0x00, 0x04, 0xfc, 0xff, 0xff, 0xfd, 0xfe,
  0x01, 0xfe, 0x00, 0x00, 0x03, 0x01, 0x03, 0x05, 0x01, 0x05, 0x05, 0xfe,
  0xff, 0x06, 0x03, 0x05, 0x04, 0xfd, 0x04, 0x04, 0xfd, 0x02, 0xfb, 0x02,
  0xfd, 0xfd, 0xfb, 0x06, 0x00, 0xfe, 0x03, 0xff, 0x03, 0xfe, 0xfd, 0x05,
  0xfb, 0x02, 0xfe, 0x02, 0xff, 0x04, 0x04, 0x03, 0xfe, 0x02, 0xfb, 0xfe,
  0x00, 0x05, 0x01, 0xfb, 0x05, 0x05, 0xfd, 0xfc, 0xff, 0x05, 0x00, 0xfd,
  0xff, 0x03, 0x03, 0xfe, 0x04, 0x02, 0xfc, 0x01, 0xfb, 0x05, 0x02, 0x02,
  0x03, 0x05, 0x04, 0x04, 0x02, 0xfc, 0x01, 0xfc, 0x04, 0xfd, 0x05, 0xfe,
  0xfa, 0x00, 0xff, 0xfa, 0xfb, 0x03, 0xfd, 0xfa, 0x02, 0x00, 0xfa, 0xfc,
  0x02, 0x02, 0x03, 0x01, 0x04, 0xff, 0x03, 0xfa, 0x00, 0xfe, 0x01, 0xfc,
  0x00, 0x02, 0xfb, 0xfa, 0xff, 0x01, 0x03, 0x00, 0xfd, 0xfd, 0xfb, 0xff,
  0xfe, 0x02, 0xfe, 0xfc, 0x02, 0x05, 0x02, 0x00, 0xfe, 0xfd, 0x03, 0x01,
  0x01, 0x04, 0xff, 0xfa, 0x04, 0xff, 0xfc, 0x04, 0xfb, 0xfb, 0xfc, 0xff,
  0xfb, 0x03, 0x02, 0x02, 0x02, 0xfe, 0x02, 0xfb, 0xfd, 0x04, 0x04, 0xfc,
  0xfc, 0x01, 0xfb, 0xfb, 0x05, 0x03, 0xfb, 0xfd, 0xfc, 0x01, 0x02, 0x04,
  0x05, 0x03, 0xff, 0xfa, 0xfb, 0xfb, 0xfd, 0xfe, 0x00, 0xff, 0xfb, 0x00,
  0xfb, 0xfc, 0x01, 0x05, 0xfd, 0x01, 0xfa, 0xfd, 0xff, 0xff, 0xff, 0xfa,
  0xfd, 0x06, 0xfd, 0xfd, 0xfb, 0x01, 0x01, 0xff, 0x03, 0xfd, 0x04, 0x01,
  0x02, 0xfe, 0xfd, 0xfc, 0x04, 0xfe, 0x05, 0xfb, 0xfb, 0xfc, 0x04, 0x07,
  0x00, 0x01, 0x05, 0x05, 0xfc, 0x00, 0x03, 0x00, 0xfc, 0xfd, 0xfd, 0xff,
  0xfd, 0xff, 0xfb, 0x05, 0xfd, 0x00, 0x05, 0x00, 0xfb, 0x05, 0xfc, 0x02,
  0xfd, 0xfa, 0x00, 0x05, 0xfd, 0xfa, 0x00, 0x03, 0xfc, 0x00, 0xfb, 0x01,
  0x01, 0xfb, 0x05, 0xff, 0x05, 0xfd, 0xff, 0xfc, 0x03, 0xff, 0xfb, 0xfd,
  0x01, 0x03, 0x05, 0x04, 0x00, 0xfb, 0xfe, 0xfd, 0x04, 0x02, 0xfc, 0xfc,
  0x03, 0xfc, 0xfd, 0xfb, 0x02, 0x00, 0xfe, 0xfb, 0xfe, 0xfe, 0x04, 0xff,
  0xfb, 0x05, 0xfe, 0x01, 0xfd, 0xfd, 0xfb, 0xfb, 0xfe, 0xfe, 0xff, 0xfe,
  0x02, 0x02, 0x01, 0xfe, 0xfa, 0xff, 0x02, 0xfb, 0x01, 0x03, 0xfa, 0x02,
  0xfe, 0xfa, 0xff, 0x01, 0x00, 0xfd, 0xfd, 0xfb, 0xfb, 0xfd, 0xfa, 0x03,
  0x01, 0x00, 0xfd, 0x07, 0x03, 0xfc, 0xfe, 0x02, 0x04, 0x02, 0xfa, 0x03,
  0x03, 0x02, 0x02, 0x04, 0x03, 0xfe, 0xfd, 0xfc, 0xfd, 0xfe, 0x00, 0x01,
  0x01, 0x00, 0xfa, 0x05, 0x06, 0xff, 0x03, 0x03, 0xfc, 0x01, 0x04, 0x01,
  0xfd, 0x04, 0xff, 0x02, 0xfc, 0x02, 0xfc, 0x02, 0x04, 0xfd, 0x05, 0xfd,
  0xfc, 0x00, 0xfc, 0x02, 0xff, 0xff, 0xfc, 0xfb, 0x05, 0xfd, 0x00, 0xff,
  0xfa, 0xfb, 0x00, 0x01, 0x02, 0x02, 0x01, 0x00, 0xfd, 0xfc, 0xfa, 0x01,
  0xfd, 0xfa, 0x01, 0x02, 0x02, 0x00, 0xfe, 0xfe, 0x01, 0x03, 0xfb, 0xfe,
  0xff, 0xfb, 0xfb, 0x04, 0x04, 0xfc, 0x01, 0x04, 0xff, 0x00, 0xff, 0xfa,
  0x03, 0x03, 0xff, 0xfb, 0x05, 0xfd, 0xfb, 0x05, 0xfd, 0x02, 0x01, 0x01,
  0xfb, 0x04, 0x05, 0x01, 0xfe, 0xfc, 0xfe, 0x05, 0xfb, 0xfa, 0xff, 0xfe,
  0x00, 0x04, 0x01, 0x04, 0x05, 0xff, 0x03, 0xff, 0xfb, 0x02, 0x02, 0xff,
  0x04, 0x05, 0x01, 0xfe, 0xfb, 0x00, 0xfe, 0x06, 0xff, 0x06, 0x03, 0xfe,
  0xfc, 0xfc, 0xfb, 0x00, 0xfe, 0xfd, 0xfe, 0xff, 0x03, 0x04, 0x02, 0xfb,
  0x02, 0x01, 0xfe, 0x03, 0xfb, 0x01, 0x05, 0x00, 0x02, 0x02, 0x01, 0xfc,
  0x03, 0x05, 0xff, 0x02, 0x01, 0xfe, 0x04, 0xfc, 0x02, 0xfc, 0xfb, 0x04,
  0x01, 0x01, 0x00, 0xfc, 0x03, 0xff, 0x00, 0xfb, 0xfa, 0x01, 0x04, 0x04,
  0x03, 0xfd, 0x05, 0xfe, 0x03, 0xfe, 0xfa, 0x03, 0xff, 0x00, 0xff, 0x02,
  0x01, 0x02, 0x02, 0x06, 0x05, 0xfe, 0x04, 0xfd, 0x01, 0x00, 0xfc, 0x06,
  0xfc, 0x03, 0x04, 0x04, 0xfe, 0xfb, 0xff, 0x02, 0x02, 0xfe, 0x01, 0x01,
  0xfd, 0xff, 0xfd, 0x05, 0x05, 0x00, 0xfb, 0x04, 0xfa, 0x01, 0x05, 0x05,
  0x00, 0x02, 0x03, 0xfe, 0x03, 0x00, 0x00, 0x00, 0xfb, 0xfc, 0xfa, 0xff,
  0xfb, 0xff, 0x04, 0x00, 0x00, 0xfe, 0x00, 0x06, 0xfc, 0x00, 0x04, 0x01,
  0xfc, 0xff, 0x05, 0xfb, 0xfe, 0xfb, 0xfb, 0x04, 0x04, 0x04, 0x04, 0xfa,
  0x03, 0x02, 0xfc, 0x05, 0xfa, 0xfd, 0x01, 0x01, 0xfb, 0xfe, 0x01, 0x00,
  0xfe, 0x00, 0xfc, 0x04, 0x03, 0x00, 0xfb, 0x03, 0xff, 0xfa, 0x04, 0x03,
  0xfe, 0x06, 0x01, 0x07, 0x02, 0xfe, 0x04, 0xff, 0xfb, 0x02, 0xfd, 0x06,
  0x04, 0x01, 0xfe, 0xfd, 0x01, 0xfb, 0x00, 0x04, 0xfa, 0x03, 0xfc, 0x00,
  0x02, 0x02, 0x04, 0xfb, 0xfb, 0x04, 0x01, 0x03, 0x04, 0x00, 0xfd, 0xfd,
  0xff, 0x00, 0xfb, 0xfe, 0x00, 0x03, 0xff, 0xfe, 0x02, 0xfa, 0x02, 0xfb,
  0x03, 0xff, 0xff, 0xfe, 0xfd, 0xff, 0xfa, 0xfe, 0x04, 0xfd, 0x00, 0x03,
  0x04, 0xfe, 0x02, 0x02, 0xfe, 0xfd, 0xfb, 0xfd, 0xfb, 0x05, 0x02, 0x02,
  0xfc, 0xfe, 0x00, 0xfc, 0x00, 0xfe, 0xfc, 0xfb, 0xff, 0x05, 0xff, 0x03,
  0xfe, 0x04, 0xfd, 0xff, 0xfa, 0xfc, 0x06, 0xfe, 0x00, 0x05, 0x05, 0x03,
  0x02, 0x02, 0xfb, 0xff, 0x04, 0x05, 0xfb, 0x06, 0x02, 0x06, 0x01, 0xfc,
  0x04, 0xfc, 0xff, 0x04, 0xfa, 0xfe, 0xff, 0xff, 0xfe, 0xfc, 0xfd, 0x02,
  0xfc, 0xfd, 0xff, 0x04, 0xfb, 0x00, 0x02, 0xff, 0xfe, 0xfc, 0x02, 0x05,
  0x05, 0xfb, 0xfa, 0x00, 0x03, 0xfa, 0x00, 0xfd, 0xfc, 0x07, 0xfe, 0x02,
  0x01, 0xfe, 0x05, 0xff, 0xfa, 0x05, 0xfe, 0xff, 0xfc, 0x06, 0x01, 0x00,
  0xff, 0xfa, 0x01, 0xfc, 0x05, 0xff, 0x02, 0x01, 0xff, 0x05, 0x01, 0x02,
  0xfc, 0x04, 0x03, 0xfc, 0xff, 0x00, 0x05, 0x05, 0xff, 0x04, 0xfe, 0xfe,
  0x02, 0x02, 0xfe, 0x03, 0xfa, 0x00, 0xfd, 0xfa, 0x00, 0xfb, 0x00, 0x02,
  0xff, 0xff, 0xfc, 0xfb, 0x00, 0x00, 0xfb, 0x03, 0x06, 0xfa, 0xfc, 0x07,
  0x02, 0xfb, 0xfa, 0x00, 0xfc, 0x03, 0xfe, 0x02, 0x01, 0xfd, 0xfb, 0xfd,
  0x03, 0x04, 0xff, 0x03, 0x00, 0x00, 0x01, 0x01, 0x03, 0xfc, 0xfe, 0x00,
  0xfa, 0x01, 0xff, 0x04, 0xfe, 0x00, 0xfa, 0xfd, 0x01, 0xfc, 0x01, 0x00,
  0x03, 0x03, 0xfb, 0x01, 0xfd, 0x02, 0x06, 0xff, 0x05, 0xfb, 0x05, 0xff,
  0x02, 0x07, 0xff, 0x03, 0xfa, 0xff, 0xfe, 0x05, 0x03, 0xfc, 0x02, 0x03,
  0x03, 0x05, 0xfe, 0x01, 0x04, 0xfd, 0xfb, 0x03, 0x01, 0x03, 0xfb, 0x01,
  0xfe, 0x01, 0xfe, 0xff, 0xfa, 0x04, 0x05, 0x03, 0xfc, 0x04, 0x03, 0xfb,
  0x01, 0x01, 0x02, 0xff, 0x01, 0x00, 0x03, 0x03, 0x05, 0xff, 0xff, 0xfe,
